[PAD]	0
[UNK]	0
[BOS]	0
[EOS]	0
[MASK]	0
[CLS]	0
[SEP]	0
▁के	-3.44751
।	-3.6158
▁है	-3.72806
▁में	-3.73717
,	-3.91757
▁की	-3.95017
▁से	-4.21339
▁को	-4.2244
▁और	-4.34426
.	-4.42795
▁का	-4.43393
▁हैं	-4.72176
▁पर	-4.72675
▁ने	-4.77427
▁कि	-4.92912
▁भी	-4.96092
▁एक	-5.12753
▁लिए	-5.24485
▁	-5.26198
▁कर	-5.28341
▁नहीं	-5.28479
-	-5.30764
▁इस	-5.34011
▁ही	-5.35461
▁तो	-5.45492
▁हो	-5.47056
▁यह	-5.67109
▁किया	-5.67126
▁था	-5.67431
▁करने	-5.76854
▁गया	-5.82149
▁साथ	-5.85871
▁अपने	-5.99204
ों	-6.0256
ी	-6.04288
▁कहा	-6.0677
▁बाद	-6.1169
)	-6.14059
▁(	-6.14575
▁जो	-6.16777
▁रहे	-6.20352
▁दिया	-6.22049
▁आप	-6.23719
▁तक	-6.24516
▁थी	-6.27528
▁रहा	-6.28884
▁कुछ	-6.33344
▁हुए	-6.33488
▁जा	-6.3414
▁थे	-6.37245
▁वह	-6.38613
▁रही	-6.4071
▁लेकिन	-6.41025
▁या	-6.4372
ा	-6.45021
▁कोई	-6.51211
▁ये	-6.55033
▁किसी	-6.55125
▁अपनी	-6.55609
▁न	-6.55685
▁होने	-6.55882
▁गई	-6.55985
▁करते	-6.5685
▁पहले	-6.5862
▁अब	-6.59095
▁वाले	-6.64894
▁उन्होंने	-6.65453
▁बात	-6.65626
▁जाता	-6.69016
▁होता	-6.69096
:	-6.70842
▁व	-6.71101
▁भारत	-6.71384
▁सरकार	-6.71568
▁जब	-6.71671
▁हम	-6.7174
▁तरह	-6.72177
▁लोगों	-6.72772
न	-6.73432
▁बहुत	-6.73621
▁इसके	-6.74585
▁समय	-6.75356
▁गए	-6.76129
▁।	-6.79879
▁आज	-6.81138
▁दी	-6.81806
▁हुआ	-6.81959
▁मैं	-6.82941
े	-6.83543
▁दिन	-6.83661
▁सकते	-6.84727
▁कई	-6.86424
▁उनके	-6.87711
▁आ	-6.88145
▁फिर	-6.88312
▁बार	-6.88717
▁रूप	-6.88719
▁काम	-6.90501
▁करना	-6.9084
र	-6.91115
▁सभी	-6.92614
▁सकता	-6.9307
▁द्वारा	-6.93168
▁-	-6.93589
ता	-6.93955
▁दो	-6.9409
▁साल	-6.94354
▁देश	-6.94745
▁वे	-6.95067
▁क्या	-6.95868
▁पुलिस	-6.963
▁आपको	-6.96469
▁इन	-6.97694
▁वो	-6.98272
▁लोग	-6.98279
▁लेकर	-6.99475
▁हुई	-7.00774
▁नाम	-7.01963
▁उन्हें	-7.02451
▁होगा	-7.03713
▁उस	-7.05034
क	-7.05236
▁सिंह	-7.05265
ल	-7.0529
ं	-7.0642
...	-7.07263
▁जाने	-7.08455
▁सबसे	-7.08781
ो	-7.09352
▁कम	-7.102
▁उसके	-7.11081
▁फिल्म	-7.11339
▁हर	-7.1172
▁होती	-7.12113
▁उसे	-7.13809
▁एवं	-7.14216
▁घर	-7.14709
▁बताया	-7.16531
ने	-7.16652
▁अगर	-7.16754
▁,	-7.18603
्स	-7.18631
?	-7.18892
▁चाहिए	-7.19486
▁लिया	-7.20489
स	-7.21241
▁दिल्ली	-7.21635
ना	-7.22895
▁जी	-7.23425
▁करें	-7.23797
▁तथा	-7.24055
▁उनकी	-7.25797
▁वाली	-7.26236
▁कारण	-7.26494
▁पास	-7.27067
▁करता	-7.28218
▁ऐसे	-7.28232
▁दोनों	-7.29556
म	-7.30982
▁ले	-7.33413
▁बीच	-7.35061
s	-7.35108
▁'	-7.35141
▁अपना	-7.35887
▁ज्यादा	-7.35997
▁ऐसा	-7.36451
▁बारे	-7.37531
▁शुरू	-7.38886
▁भारतीय	-7.38988
▁जैसे	-7.38992
▁मुझे	-7.39199
▁दे	-7.39981
▁अधिक	-7.41046
▁दौरान	-7.41657
▁प्रदेश	-7.42371
▁यहां	-7.44798
▁लगा	-7.45914
कर	-7.46577
'	-7.46742
▁जाती	-7.48073
▁आपके	-7.48691
▁देने	-7.48785
▁:	-7.48947
▁अन्य	-7.49346
▁पार्टी	-7.49347
▁मे	-7.5024
▁कांग्रेस	-7.51437
ते	-7.53189
▁क्षेत्र	-7.53652
▁इसे	-7.53942
▁ओर	-7.55541
▁होते	-7.55608
▁काफी	-7.55841
▁कभी	-7.56397
▁राज्य	-7.5709
त	-7.57423
▁जानकारी	-7.57943
▁मामले	-7.58623
▁इससे	-7.58969
▁मोदी	-7.58974
▁चुनाव	-7.6053
▁मेरे	-7.607
▁जीवन	-7.60842
▁सब	-7.61928
▁तीन	-7.62021
▁हमारे	-7.62576
ई	-7.62739
▁सकती	-7.64008
▁क्योंकि	-7.64399
▁टीम	-7.64924
▁इसी	-7.65553
▁नई	-7.66076
▁उसकी	-7.67404
▁सामने	-7.67868
▁इसलिए	-7.67884
▁बना	-7.68337
▁वर्ष	-7.68672
▁शामिल	-7.69113
▁तब	-7.69503
▁पूरी	-7.6953
▁होगी	-7.69745
▁पानी	-7.70357
/	-7.70402
▁पूर्व	-7.71034
▁जाएगा	-7.712
▁जाते	-7.72443
▁खिलाफ	-7.72738
▁आने	-7.73206
ज	-7.7325
▁कुमार	-7.73411
▁अभी	-7.73843
▁आगे	-7.73918
▁किए	-7.74275
ती	-7.74871
▁अनुसार	-7.74951
ए	-7.74982
▁"	-7.75113
▁अलग	-7.7554
ब	-7.75897
▁ना	-7.76717
▁2	-7.76735
▁मिल	-7.76955
▁बड़ी	-7.77051
▁जारी	-7.77185
▁मैंने	-7.77431
▁यदि	-7.77538
▁उन	-7.77636
▁वहीं	-7.77708
▁रंग	-7.78399
▁उनका	-7.78922
▁बनाने	-7.79989
▁वाला	-7.80461
▁10	-7.80775
▁इसका	-7.80824
▁विकास	-7.8088
▁पता	-7.81402
▁इसमें	-7.8182
▁श्री	-7.83506
▁महिला	-7.84126
▁मन	-7.84919
▁बन	-7.85241
▁प्रकार	-7.85426
ियों	-7.85735
▁मंत्री	-7.87168
▁दुनिया	-7.87326
▁बड़े	-7.87652
▁भाजपा	-7.88275
▁व्यक्ति	-7.88402
▁बाहर	-7.88516
▁करती	-7.8852
िंग	-7.89003
▁3	-7.89113
▁करके	-7.89195
▁करोड़	-7.89498
▁आदि	-7.89542
ट	-7.90168
!	-7.90221
▁कार्य	-7.90245
▁जिसमें	-7.90279
ें	-7.90718
▁प्राप्त	-7.90898
▁जिस	-7.91168
▁परिवार	-7.91184
▁आई	-7.91387
▁मेरी	-7.9144
▁प्रति	-7.92479
▁दूसरे	-7.92592
जी	-7.92617
▁पिछले	-7.92901
▁उसने	-7.9324
▁दें	-7.93356
▁मीडिया	-7.9375
▁5	-7.93828
▁जहां	-7.9415
▁उत्तर	-7.94237
▁अलावा	-7.94238
▁रुपये	-7.94537
▁दिनों	-7.94576
▁समाज	-7.94818
▁लाख	-7.95592
▁चल	-7.95709
▁वजह	-7.96125
प	-7.96419
▁जाए	-7.96502
▁कंपनी	-7.96561
▁1	-7.97058
▁मुख्यमंत्री	-7.97192
▁लिये	-7.97338
▁हूं	-7.97585
▁दिए	-7.9762
▁प्रधानमंत्री	-7.9765
▁पूरा	-7.98736
▁गांव	-7.98815
▁ऐसी	-7.98887
▁अ	-7.99005
▁देते	-7.99156
▁इस्तेमाल	-8.00077
▁बता	-8.00219
▁खुद	-8.00293
▁बड़ा	-8.00403
▁आया	-8.00576
▁अध्यक्ष	-8.00609
▁जगह	-8.00672
नी	-8.007
▁हूँ	-8.00724
▁हमें	-8.0085
▁दूर	-8.00891
▁सिर्फ	-8.00967
▁बंद	-8.01507
▁रात	-8.01732
▁कैसे	-8.0213
सी	-8.02152
▁गयी	-8.02327
व	-8.02564
▁बच्चों	-8.02711
▁ध्यान	-8.03666
▁2018	-8.03926
▁उसका	-8.04195
▁सी	-8.04216
▁अच्छा	-8.04255
▁चार	-8.04295
▁जांच	-8.04297
▁जबकि	-8.04461
▁करीब	-8.04778
▁केवल	-8.05125
या	-8.06136
▁विभाग	-8.06372
द	-8.06574
▁वहां	-8.06639
▁हाथ	-8.07051
▁रहने	-8.07728
▁मुख्य	-8.07935
▁4	-8.08117
▁जाना	-8.08167
▁बस	-8.08309
▁होना	-8.09002
▁जिससे	-8.09966
▁तैयार	-8.10045
▁मदद	-8.10197
▁जिसके	-8.10222
▁कार्यक्रम	-8.10631
▁भर	-8.10822
▁नही	-8.11193
▁देख	-8.11221
▁बैंक	-8.11274
▁यही	-8.11502
▁राम	-8.11829
▁पहली	-8.11835
▁योजना	-8.11856
▁ली	-8.11913
▁नेता	-8.11956
▁हालांकि	-8.13143
▁आपकी	-8.13326
▁स्थान	-8.1389
▁वीडियो	-8.13927
▁शिक्षा	-8.14064
▁आम	-8.14228
▁रुपए	-8.14528
▁शरीर	-8.14543
▁शहर	-8.1476
▁तरफ	-8.14948
▁करेंगे	-8.15077
▁रह	-8.15149
▁इसकी	-8.15267
▁लेने	-8.15417
▁जनता	-8.15495
▁देखा	-8.15556
▁लगे	-8.15577
रा	-8.15674
ड	-8.15949
▁चाहते	-8.1596
▁कोर्ट	-8.16116
▁दर्ज	-8.16121
▁कहना	-8.16487
▁बिना	-8.16708
ह	-8.1763
री	-8.17642
▁सही	-8.17794
▁क्यों	-8.18263
▁राष्ट्रीय	-8.18476
▁लगता	-8.18514
▁मंदिर	-8.18875
ित	-8.19002
▁आरोप	-8.19118
▁मिला	-8.19414
▁पाकिस्तान	-8.20186
▁स्थित	-8.20473
▁जिला	-8.20557
ग	-8.2068
"	-8.2078
्	-8.21029
के	-8.21117
ि	-8.21507
वा	-8.21586
▁कहते	-8.21696
▁पूरे	-8.21784
▁धर्म	-8.21853
▁खान	-8.21858
▁शादी	-8.21926
▁यादव	-8.22309
▁आधार	-8.22553
िया	-8.2261
▁मौत	-8.22797
▁घटना	-8.22871
ला	-8.22958
ओं	-8.23011
▁नजर	-8.23098
▁मांग	-8.23129
▁सुबह	-8.23201
▁12	-8.23469
ओ	-8.23518
▁स्थिति	-8.23525
▁तहत	-8.23901
▁अच्छी	-8.23996
▁...	-8.24136
▁अधिकारी	-8.24318
▁!	-8.24419
▁नए	-8.24439
▁विशेष	-8.24775
▁बल्कि	-8.24857
▁मुताबिक	-8.25161
0	-8.25232
▁/	-8.25366
▁जिले	-8.25472
ू	-8.25913
▁आए	-8.26129
▁लगी	-8.26664
का	-8.27163
▁लगभग	-8.27248
ली	-8.2754
▁पांच	-8.27645
▁उपयोग	-8.27675
▁गांधी	-8.27689
▁निर्माण	-8.27952
▁तौर	-8.28174
▁मेरा	-8.28571
▁स्कूल	-8.28645
▁संख्या	-8.28761
▁कोशिश	-8.28868
▁बच्चे	-8.29113
▁परीक्षा	-8.29178
▁15	-8.29258
▁गये	-8.29508
▁हजार	-8.29709
▁सुरक्षा	-8.29743
य	-8.30018
▁विश्व	-8.30343
▁6	-8.3036
▁ठीक	-8.30384
▁.	-8.30656
▁बजे	-8.31133
▁देखने	-8.31252
▁सेवा	-8.31306
▁स्तर	-8.31691
▁होंगे	-8.31698
▁20	-8.31797
▁सवाल	-8.31888
ण	-8.3193
▁प्रमुख	-8.32405
▁ए	-8.32437
▁जिसे	-8.32592
▁डॉ	-8.3262
पुर	-8.32768
▁केंद्र	-8.33063
़	-8.33356
▁रखा	-8.33365
▁रिपोर्ट	-8.33682
▁विभिन्न	-8.33746
▁महीने	-8.3428
▁यहाँ	-8.34398
▁हमारी	-8.35041
श	-8.35517
▁थीं	-8.35532
▁भाई	-8.36259
▁ऊपर	-8.36594
▁चुके	-8.36642
▁कहीं	-8.36906
▁यात्रा	-8.37453
▁हाल	-8.37616
▁देता	-8.3779
▁दूसरी	-8.37924
▁समस्या	-8.38023
▁महिलाओं	-8.38115
▁पद	-8.38764
▁लाल	-8.39073
▁लाभ	-8.39167
▁जाएगी	-8.39489
▁मैच	-8.39555
▁Hindi	-8.39709
▁रखने	-8.40139
िक	-8.40324
▁पीछे	-8.40434
▁खेल	-8.40546
▁मिली	-8.40738
▁रहते	-8.40801
▁चला	-8.4085
▁भाग	-8.40881
▁फोन	-8.41028
▁शर्मा	-8.41794
▁पिता	-8.42002
▁लग	-8.4217
▁नगर	-8.42358
▁बनाया	-8.42511
मा	-8.42669
▁माना	-8.43083
▁भगवान	-8.43083
▁म	-8.43172
▁कह	-8.43512
▁इंडिया	-8.43678
▁पत्र	-8.43752
▁मुंबई	-8.43776
▁उसी	-8.44065
▁बिहार	-8.44223
▁कुल	-8.44291
▁हमेशा	-8.44295
▁लिखा	-8.44339
▁लगातार	-8.44587
▁इतना	-8.44638
▁सा	-8.44747
▁बढ़	-8.44784
▁पा	-8.45052
▁नीचे	-8.4537
▁in	-8.45433
▁बाजार	-8.45435
▁माध्यम	-8.45517
▁बीजेपी	-8.45575
▁सके	-8.45816
▁प्रयोग	-8.46235
▁मौजूद	-8.46654
▁व्यवस्था	-8.46663
▁तुम	-8.46668
▁क	-8.46844
▁जीत	-8.46883
▁सरकारी	-8.47089
▁आपका	-8.47181
ले	-8.47929
▁बैठक	-8.47953
▁उपलब्ध	-8.48064
▁लें	-8.48068
▁विचार	-8.48295
▁स्वास्थ्य	-8.48559
▁8	-8.48576
▁प्रतिशत	-8.48913
▁करे	-8.48919
▁चुकी	-8.49319
▁रहता	-8.49337
▁स	-8.49456
▁पत्नी	-8.49472
▁हिंदी	-8.49622
▁होकर	-8.49721
एं	-8.49811
▁चीन	-8.50049
▁चलते	-8.50287
▁मां	-8.50372
▁जल	-8.50413
▁आवेदन	-8.51064
▁विधानसभा	-8.51064
▁उच्च	-8.51281
डी	-8.51487
▁7	-8.51504
▁कहानी	-8.51542
▁राहुल	-8.51682
▁मिलने	-8.51729
▁मौके	-8.51758
▁11	-8.51783
▁प्रदान	-8.51806
▁महत्वपूर्ण	-8.51883
▁देर	-8.52335
▁भाषा	-8.52423
▁?	-8.52542
▁राज	-8.53026
▁देना	-8.53174
फ	-8.53342
▁ई	-8.53596
▁पसंद	-8.53609
▁किये	-8.53718
▁18	-8.53876
▁सूचना	-8.54081
▁समझ	-8.54431
▁अमेरिका	-8.54788
टी	-8.55025
सा	-8.55097
▁विरोध	-8.55318
पी	-8.55344
▁मामला	-8.5543
▁अस्पताल	-8.56011
▁किस	-8.56168
▁जवाब	-8.56247
▁याद	-8.56365
▁प्रदर्शन	-8.56458
▁जरूरत	-8.56514
▁बने	-8.56614
▁खबर	-8.56624
▁पति	-8.5664
▁चुका	-8.56668
▁लगाया	-8.56832
▁सहित	-8.56921
▁जन्म	-8.5709
▁प्रयास	-8.57095
▁संबंध	-8.57245
▁बेहतर	-8.57453
▁आदेश	-8.57813
▁हत्या	-8.57832
▁9	-8.57923
▁चर्चा	-8.58064
▁वक्त	-8.58291
▁पोस्ट	-8.58343
▁पहचान	-8.58578
▁दिल	-8.58629
▁रन	-8.5864
▁लड़की	-8.59057
▁जान	-8.59918
अ	-8.5997
▁पहुंच	-8.6014
▁वालों	-8.60288
वी	-8.60492
▁News	-8.60661
▁नया	-8.60737
बी	-8.60792
▁ऑफ	-8.60802
▁आता	-8.60973
▁ताकि	-8.6107
▁हे	-8.61882
▁उससे	-8.62129
▁राशि	-8.62294
▁30	-8.62329
▁आते	-8.62893
▁आयोजित	-8.63213
▁देखते	-8.635
▁अधिकारियों	-8.63531
▁अंदर	-8.63626
▁पूजा	-8.6384
▁छोटे	-8.64036
▁प्यार	-8.64603
▁छोड़	-8.6491
▁कल	-8.64958
(	-8.64991
▁अच्छे	-8.65052
च	-8.65064
▁धन	-8.65165
▁खास	-8.65802
▁बोर्ड	-8.65928
▁19	-8.66024
▁पी	-8.66311
▁उम्र	-8.66429
▁भर्ती	-8.66456
▁बाल	-8.66803
▁हिस्सा	-8.66888
▁राष्ट्रपति	-8.67104
▁पड़ा	-8.67131
ंग	-8.67237
ख	-8.67318
▁तेल	-8.67388
▁शेयर	-8.67429
▁शायद	-8.67441
▁हमने	-8.67447
▁अवसर	-8.67483
▁जानते	-8.67726
गा	-8.68355
▁कानून	-8.68387
▁साफ	-8.68396
▁नंबर	-8.68414
▁रहती	-8.68655
▁घंटे	-8.68936
दा	-8.69105
▁रख	-8.69115
▁देशों	-8.69204
▁50	-8.69313
▁मध्य	-8.6936
▁कौन	-8.69401
▁सारे	-8.69696
▁कार	-8.69724
▁बयान	-8.69736
▁प्रेम	-8.69756
्य	-8.69978
▁ग्राम	-8.70188
▁तय	-8.70336
▁मोबाइल	-8.70369
▁हासिल	-8.70501
से	-8.70635
▁राजनीति	-8.70655
▁शाम	-8.70743
▁सोशल	-8.70843
▁विषय	-8.71005
ये	-8.7113
▁सेक्स	-8.71183
▁सेना	-8.7163
▁फैसला	-8.71673
▁वही	-8.71725
▁किसानों	-8.71769
ु	-8.71981
▁बेहद	-8.72018
▁पेश	-8.72045
▁कीमत	-8.72092
▁वापस	-8.72171
▁कमी	-8.72177
▁पैसे	-8.7226
▁वैसे	-8.72285
▁जैसी	-8.72554
ज़	-8.72737
▁दोस्तों	-8.72752
▁तेज	-8.72827
▁आदमी	-8.73052
▁लेते	-8.73219
▁आर्थिक	-8.73929
▁14	-8.7407
▁प्र	-8.74241
▁दिखाई	-8.74504
▁वि	-8.74614
),	-8.74681
▁तरीके	-8.74709
▁जन	-8.74731
▁प्रक्रिया	-8.74838
▁हिन्दी	-8.74845
▁बी	-8.74989
▁यानी	-8.75191
▁आयोजन	-8.75212
▁मिनट	-8.75498
▁द	-8.75861
▁संघ	-8.75902
▁जल्द	-8.7595
▁शुरुआत	-8.75966
▁खाने	-8.76329
▁गिरफ्तार	-8.76446
▁सामाजिक	-8.7645
▁फीसदी	-8.76523
▁शो	-8.76558
▁कार्रवाई	-8.76594
▁16	-8.76687
▁जुड़े	-8.76873
▁नि	-8.76916
y	-8.76999
▁A	-8.7725
▁25	-8.77562
▁बनी	-8.77811
▁राजस्थान	-8.77825
▁बॉलीवुड	-8.78301
▁पड़	-8.78357
▁आपने	-8.78426
▁आयोग	-8.78563
▁राजनीतिक	-8.78659
▁पहला	-8.78831
▁मिले	-8.78859
ीय	-8.78986
▁आती	-8.79018
e	-8.79149
▁लगाने	-8.79338
▁जरूरी	-8.79348
▁नरेंद्र	-8.79507
०	-8.79879
की	-8.79925
▁सड़क	-8.79939
▁पाया	-8.80222
▁सोच	-8.80267
▁अभियान	-8.80319
▁शिकायत	-8.80429
▁ज्ञान	-8.80475
ing	-8.80628
▁सु	-8.80702
▁रेलवे	-8.81059
▁अगले	-8.81096
▁ब	-8.812
▁वेबसाइट	-8.81391
▁टी	-8.81476
वे	-8.81571
▁मगर	-8.81578
▁जैसा	-8.81762
▁समिति	-8.81767
▁दल	-8.81881
▁माँ	-8.81891
आ	-8.82219
▁सोमवार	-8.82425
▁छात्र	-8.82872
▁माता	-8.82917
▁बनाए	-8.82949
▁बेटी	-8.83037
▁शब्द	-8.83045
▁मार	-8.83335
▁शिव	-8.83385
▁उम्मीद	-8.83411
▁वर्ग	-8.83418
▁पहुंचे	-8.83632
▁घोषणा	-8.83713
▁थाना	-8.83817
▁क्रिकेट	-8.84077
▁उनसे	-8.8417
▁अगस्त	-8.84357
▁2017	-8.84392
a	-8.8449
▁कदम	-8.84504
▁युवा	-8.84512
▁भूमिका	-8.84535
▁सो	-8.84756
▁सीमा	-8.85025
▁भारी	-8.85174
▁पैदा	-8.85243
▁संगठन	-8.85449
▁प	-8.8572
▁देती	-8.85766
▁खत्म	-8.85821
▁कार्ड	-8.85824
▁नौकरी	-8.85968
▁हेतु	-8.86002
▁सामान्य	-8.86031
▁विधायक	-8.86133
▁बनने	-8.86145
▁ऑनलाइन	-8.86193
▁टेस्ट	-8.86245
▁इतिहास	-8.86323
in	-8.86349
▁न्यायालय	-8.86513
▁जेल	-8.8655
▁मिलता	-8.86608
▁बल	-8.86661
गी	-8.8688
▁शुक्रवार	-8.87112
▁सदस्य	-8.87208
▁हों	-8.8745
▁शक्ति	-8.87574
▁जमा	-8.87596
▁S	-8.87691
▁कराने	-8.87735
ियां	-8.87776
▁अंतिम	-8.87863
▁देवी	-8.8788
▁प्रभाव	-8.87943
▁गलत	-8.87954
▁पड़ता	-8.88089
ँ	-8.88223
▁जिसका	-8.88363
▁13	-8.88538
▁मंगलवार	-8.88707
▁दिशा	-8.88891
▁करेगा	-8.88897
▁दर्द	-8.89304
▁बुधवार	-8.89307
▁प्रवेश	-8.89327
▁B	-8.89332
▁तभी	-8.89507
▁बावजूद	-8.89534
▁बिजली	-8.89614
▁स्वयं	-8.897
▁किसान	-8.89739
▁चाहता	-8.89854
▁मात्रा	-8.89922
d	-8.89955
▁राजा	-8.90001
▁समर्थन	-8.90031
▁सम्मान	-8.90179
▁लोक	-8.90516
▁अधिकार	-8.90656
▁बदल	-8.90703
▁जाकर	-8.90753
▁रहेगा	-8.90858
▁व्यापार	-8.90903
रे	-8.91119
▁योग	-8.91209
▁पक्ष	-8.91701
▁भाव	-8.9171
▁नेताओं	-8.91739
▁दक्षिण	-8.91959
▁स्थानीय	-8.92103
▁जिन	-8.92132
▁एस	-8.92645
▁गुजरात	-8.92649
▁आरोपी	-8.92755
वि	-8.93103
▁24	-8.93242
▁पे	-8.93288
को	-8.93371
▁पंजाब	-8.9342
▁लागू	-8.93592
इ	-8.93711
▁सात	-8.93774
▁जाएंगे	-8.93938
▁जमीन	-8.94016
▁100	-8.94209
▁जून	-8.94248
▁कराया	-8.9426
▁हमारा	-8.94443
▁पूर्ण	-8.94577
▁उप	-8.94632
▁प्रशासन	-8.94778
▁इतनी	-8.94839
▁प्रकाश	-8.95367
▁17	-8.95372
▁रोक	-8.95429
▁राय	-8.95471
▁बातें	-8.95472
▁विश्वास	-8.95573
▁संबंधित	-8.95603
थ	-8.95617
▁जरूर	-8.95627
▁त	-8.95651
▁प्रभावित	-8.95741
▁शनिवार	-8.95856
▁उसमें	-8.96005
er	-8.96028
▁डी	-8.96049
▁कपूर	-8.96055
▁जुलाई	-8.96261
▁रविवार	-8.96468
▁सुप्रीम	-8.96582
▁आग	-8.966
▁गंभीर	-8.96916
▁देखकर	-8.97056
▁कॉलेज	-8.9715
▁दिवस	-8.97342
▁सफल	-8.97496
▁लखनऊ	-8.97637
▁मार्च	-8.97649
▁महसूस	-8.97813
▁निर्णय	-8.97853
▁अदालत	-8.98038
▁सर	-8.98067
▁केंद्रीय	-8.98256
▁शाह	-8.98386
▁मंत्रालय	-8.98429
▁21	-8.98597
▁दर	-8.98722
▁डाल	-8.98808
▁१	-8.98927
ड़	-8.98947
▁दरअसल	-8.99082
▁छात्रों	-8.99094
▁देकर	-8.99222
▁अनुभव	-8.99223
▁पुत्र	-8.99306
▁मूल	-8.99545
▁सफलता	-8.99562
▁निर्देश	-8.99619
▁आवश्यकता	-8.99739
▁साबित	-8.99854
▁सिर	-8.99874
▁वर्तमान	-8.99932
▁इलाज	-9.00136
▁देव	-9.00217
▁मतलब	-9.00227
1	-9.00233
▁मिलेगा	-9.00424
▁मई	-9.00501
▁कश्मीर	-9.00535
▁मान	-9.00626
▁सारी	-9.00759
▁सचिव	-9.00793
▁निकल	-9.00855
▁ग	-9.00908
▁ओ	-9.00919
▁वरिष्ठ	-9.01015
▁छोटी	-9.01146
ed	-9.01221
▁भविष्य	-9.0132
▁दूसरा	-9.01355
▁माह	-9.01403
▁लेना	-9.01843
▁मानव	-9.02071
▁अर्थ	-9.02075
▁फोटो	-9.02753
▁निवासी	-9.02829
▁पीएम	-9.03033
▁मै	-9.0304
वें	-9.03043
▁टीवी	-9.03063
जा	-9.0311
▁इनके	-9.03185
▁सत्ता	-9.03249
▁खर्च	-9.03276
i	-9.0332
▁खाना	-9.03736
▁चाहे	-9.03843
▁बदलाव	-9.04022
▁जिसकी	-9.04128
▁धीरे	-9.04141
▁तेजी	-9.04144
▁मौसम	-9.04192
▁नुकसान	-9.04417
▁मजबूत	-9.04496
▁बेटे	-9.04614
इस	-9.04737
t	-9.04761
▁दूध	-9.04774
▁डिग्री	-9.0483
▁उनको	-9.04843
▁रि	-9.04982
▁प्रत्येक	-9.05202
▁स्थापित	-9.05231
▁आसान	-9.05256
▁हार	-9.05283
▁परिणाम	-9.05384
▁अंक	-9.0539
▁आवश्यक	-9.05411
▁संयुक्त	-9.05412
▁असर	-9.05481
▁सच	-9.05649
▁आनंद	-9.05756
वीं	-9.05882
साथ	-9.05918
मी	-9.06073
▁लोकसभा	-9.063
वर	-9.06304
▁गीत	-9.06386
▁पाने	-9.06427
▁नदी	-9.06583
▁कार्यालय	-9.06594
▁दस	-9.06815
▁बे	-9.06826
▁अनेक	-9.06886
▁रखते	-9.06906
यों	-9.06972
र्स	-9.07162
▁विजय	-9.0717
▁डा	-9.07183
▁अक्सर	-9.07195
▁मुश्किल	-9.0722
▁सहयोग	-9.07243
▁ट्रेन	-9.07316
▁इ	-9.07482
▁फल	-9.07496
▁प्रसाद	-9.0763
▁राष्ट्र	-9.07732
▁चले	-9.07752
▁बाबा	-9.07754
▁ह	-9.07862
▁उम्मीदवार	-9.08031
b	-9.08083
▁मत	-9.08128
▁विश्वविद्यालय	-9.08315
▁उठा	-9.08392
▁सामना	-9.08426
▁पेट	-9.08447
▁उ	-9.08497
▁अक्टूबर	-9.08564
▁निजी	-9.08601
▁सुधार	-9.08613
▁आसानी	-9.0867
▁राज्यों	-9.0869
▁सं	-9.08903
▁ला	-9.08973
▁बताते	-9.08979
▁बारिश	-9.09206
▁मौका	-9.09247
▁समेत	-9.09254
▁फिल्मों	-9.09448
▁छह	-9.09551
▁रक्षा	-9.09585
▁जल्दी	-9.09652
▁एम	-9.09667
▁C	-9.1002
▁लंड	-9.10066
अलग	-9.10067
▁जनवरी	-9.10082
▁घायल	-9.1012
▁मा	-9.10201
▁स्पष्ट	-9.10332
दार	-9.10386
▁सेवन	-9.10557
बा	-9.10686
▁परेशान	-9.10727
▁कही	-9.1073
▁कविता	-9.10829
▁आये	-9.1087
▁साहित्य	-9.11109
पर	-9.11112
▁सलमान	-9.11395
▁जहाँ	-9.11619
▁क्षेत्रों	-9.11733
▁भीतर	-9.11827
▁मुस्लिम	-9.11832
▁सहायता	-9.11934
▁मार्ग	-9.11939
P	-9.1194
▁सूची	-9.11986
▁जरिए	-9.12002
▁नवंबर	-9.12127
▁सितंबर	-9.12323
▁बातचीत	-9.12538
▁युवक	-9.12572
o	-9.12688
▁करनी	-9.12701
▁सांसद	-9.1275
▁अप्रैल	-9.12763
▁पार	-9.12765
▁चेहरे	-9.12838
▁रोग	-9.12841
com	-9.12962
▁खा	-9.13038
▁जे	-9.1304
▁सह	-9.13065
िका	-9.13076
▁of	-9.13092
▁पैसा	-9.13373
▁अंत	-9.13383
▁ल	-9.13401
▁जायेगा	-9.13424
▁ज	-9.13441
▁विकल्प	-9.13468
▁प्रश्न	-9.13563
▁भोजन	-9.13771
▁पूछा	-9.138
एस	-9.13867
▁अतिरिक्त	-9.13926
▁दावा	-9.14009
▁मॉडल	-9.14113
▁युद्ध	-9.14503
c	-9.14916
▁खराब	-9.14958
ः	-9.15028
▁तैयारी	-9.15076
▁नेतृत्व	-9.15134
▁गुरुवार	-9.15141
ियाँ	-9.15214
ै	-9.15332
▁2016	-9.15442
▁सुविधा	-9.15459
▁इलाके	-9.15471
▁हरियाणा	-9.15496
]	-9.15756
▁विकेट	-9.15805
▁जाये	-9.15882
▁संस्कृति	-9.15934
▁चाहती	-9.15996
▁विवाद	-9.16139
▁लो	-9.16142
▁विज्ञान	-9.16176
4	-9.16248
▁दौर	-9.16267
▁यूपी	-9.16272
▁तमाम	-9.16295
▁पढ़ें	-9.16363
▁आर	-9.16422
▁स्वीकार	-9.16551
▁काल	-9.16824
▁लक्ष्य	-9.16889
ड़ा	-9.17023
▁समान	-9.17052
▁स्टेशन	-9.17054
▁कु	-9.1717
▁क्षमता	-9.17207
▁डर	-9.17458
▁समाचार	-9.17485
▁आंदोलन	-9.17487
▁सजा	-9.17591
▁थोड़ा	-9.1768
▁)	-9.17795
▁इनमें	-9.17798
▁समारोह	-9.17865
▁खुश	-9.17874
▁रखें	-9.17896
▁सप्ताह	-9.17956
▁खूब	-9.18003
▁कप	-9.18285
▁डॉलर	-9.18338
राज	-9.18397
▁वृद्धि	-9.18398
▁मु	-9.18416
▁कृषि	-9.18446
▁गुरु	-9.18525
▁सौ	-9.18562
▁पंचायत	-9.18592
▁राजधानी	-9.18593
S	-9.18611
▁शब्दों	-9.18804
▁इन्हें	-9.1892
▁हमला	-9.19123
▁मिलती	-9.19211
▁बैठे	-9.19272
नि	-9.1928
▁योगी	-9.19574
▁पत्रकार	-9.19576
▁खड़े	-9.19646
▁जिंदगी	-9.19971
2	-9.20092
▁आठ	-9.20205
भ	-9.20223
हा	-9.20245
▁रस	-9.20327
ाई	-9.20464
कार	-9.20494
▁रखना	-9.20495
▁भेज	-9.20511
n	-9.20582
▁विदेशी	-9.20592
▁निकाल	-9.20623
ेश	-9.20772
▁रोड	-9.21159
▁खिलाड़ी	-9.21164
राम	-9.21175
▁22	-9.21284
▁जाति	-9.21298
▁वर्षों	-9.21518
▁अध्ययन	-9.21668
▁प्रस्ताव	-9.21673
प्र	-9.21788
▁निवेश	-9.21894
डा	-9.22102
▁इतने	-9.22235
▁लोगो	-9.22355
▁डे	-9.22487
▁चूत	-9.22566
▁समूह	-9.22575
▁वहाँ	-9.23016
▁सुख	-9.23157
▁पुरुष	-9.23217
▁बनाकर	-9.23254
▁सीट	-9.23331
▁जुड़ी	-9.23333
f	-9.23356
▁बढ़ाने	-9.2352
▁कंपनियों	-9.23592
▁मैदान	-9.23913
▁देंगे	-9.23926
▁कला	-9.24078
▁र	-9.24098
al	-9.24251
▁फ	-9.24347
पन	-9.24487
▁कर्मचारियों	-9.24514
▁फैसले	-9.24544
▁विदेश	-9.24638
▁डॉक्टर	-9.24671
▁तस्वीर	-9.24683
▁शासन	-9.24746
▁चली	-9.24798
▁कृष्ण	-9.24801
▁एंड	-9.24923
▁P	-9.2493
▁40	-9.2531
3	-9.25361
बार	-9.25375
▁मनुष्य	-9.25402
▁सभा	-9.25432
▁विवाह	-9.25445
▁मिलकर	-9.25514
▁रेल	-9.25564
▁चयन	-9.25667
▁वन	-9.25831
▁दर्शन	-9.25928
▁पदों	-9.25983
7	-9.26209
▁प्रस्तुत	-9.2629
▁अथवा	-9.26337
आर	-9.26529
▁मामलों	-9.26639
▁शराब	-9.26912
▁to	-9.26918
▁एन	-9.27152
▁संभव	-9.27163
▁बाकी	-9.27271
▁अचानक	-9.2736
▁अमेरिकी	-9.27443
▁करेगी	-9.27523
स्ट	-9.27612
▁पुराने	-9.27658
▁तुलना	-9.2787
एँ	-9.27879
▁घोषित	-9.27959
▁महा	-9.28024
r	-9.28088
▁प्रधान	-9.28108
▁गंगा	-9.28273
▁खड़ा	-9.28373
▁दोस्त	-9.28488
▁बनाई	-9.28494
▁कितना	-9.28515
▁रखी	-9.28521
▁समाप्त	-9.28543
▁जिन्हें	-9.28705
6	-9.28766
▁सीएम	-9.28837
▁ग्रामीण	-9.28919
▁हमले	-9.29056
▁मुक्त	-9.29078
▁मूल्य	-9.29169
▁शानदार	-9.29294
▁आधारित	-9.29322
▁the	-9.29401
l	-9.29449
▁बढ़ा	-9.29545
▁प्रकाशित	-9.29657
रो	-9.29683
▁रिलीज	-9.29712
▁उत्पादन	-9.2973
▁लेख	-9.29906
▁संघर्ष	-9.29916
▁पुरस्कार	-9.30091
▁पाए	-9.30251
▁टिकट	-9.30312
▁वित्त	-9.30418
▁प्रथम	-9.30421
▁संजय	-9.30439
▁संगीत	-9.30528
▁सुरक्षित	-9.30572
▁शांति	-9.30598
▁नीति	-9.30619
रू	-9.30619
▁परिवर्तन	-9.30711
यू	-9.30782
जन	-9.30805
▁हाथों	-9.30807
▁थोड़ी	-9.30826
u	-9.30847
▁बीमारी	-9.30931
▁रोज	-9.31019
▁चिंता	-9.31091
▁राहत	-9.31096
▁F	-9.31134
▁केन्द्र	-9.3125
▁सुंदर	-9.31305
▁खोज	-9.31369
▁संभावना	-9.31398
▁28	-9.31461
▁पेट्रोल	-9.3166
▁सालों	-9.31685
▁तुरंत	-9.31716
एक	-9.3173
▁लाइन	-9.31942
▁अमित	-9.32029
▁बजट	-9.32141
▁सूर्य	-9.32266
▁शिक्षक	-9.32388
ंस	-9.32444
▁नौ	-9.3247
▁त्वचा	-9.32521
▁ख	-9.32586
जे	-9.3261
▁मात्र	-9.32651
▁फायदा	-9.32751
▁वोट	-9.32765
▁ब्लॉग	-9.32798
▁नज़र	-9.3281
एल	-9.32898
▁लाने	-9.32901
▁सत्य	-9.32934
▁छत्तीसगढ़	-9.33014
▁and	-9.33082
▁जोर	-9.33375
▁बिल	-9.33421
▁आकर	-9.33441
▁आखिर	-9.33507
▁मुकाबले	-9.33519
▁अरब	-9.33542
▁देखें	-9.3355
8	-9.3356
नगर	-9.33611
▁खरीद	-9.33618
▁चलने	-9.33691
▁जम्मू	-9.33732
ति	-9.33741
▁मुलाकात	-9.3375
▁हालत	-9.33811
▁साहब	-9.33936
▁हिन्दू	-9.34016
▁a	-9.341
▁उसको	-9.34141
▁निगम	-9.34159
▁रहें	-9.34308
▁पड़े	-9.34331
▁रोजगार	-9.34498
▁पश्चिम	-9.34555
▁फिलहाल	-9.34651
▁आवाज	-9.34786
▁अली	-9.34804
▁मंच	-9.34809
▁26	-9.34811
▁भूमि	-9.34867
▁कब	-9.35042
▁भ्रष्टाचार	-9.35104
▁धार्मिक	-9.35182
▁पटना	-9.35283
▁धारा	-9.35302
▁विस्तार	-9.3535
▁सलाह	-9.35494
▁पहुंचा	-9.35589
▁इंसान	-9.3568
▁23	-9.35718
▁करा	-9.35729
▁उनमें	-9.35781
▁कहने	-9.35925
▁अपराध	-9.361
▁गैर	-9.36196
वाद	-9.36199
▁स्वागत	-9.36239
▁बहन	-9.36308
सं	-9.36555
▁बोल	-9.36649
▁सहायक	-9.36761
▁लंबे	-9.36794
▁महाराष्ट्र	-9.36799
▁फेसबुक	-9.36938
िन	-9.37017
लाल	-9.3706
▁संस्थान	-9.37084
▁शव	-9.37109
▁सामग्री	-9.37114
▁उदाहरण	-9.37118
पा	-9.37212
उ	-9.37252
▁उद्देश्य	-9.37337
शन	-9.37543
T	-9.3755
▁रहना	-9.37581
▁बोला	-9.37599
▁सीधे	-9.3762
▁स्त्री	-9.37693
▁स्थापना	-9.3785
▁चलता	-9.37881
▁परेशानी	-9.37954
▁लगाए	-9.38068
▁च	-9.38078
ंड	-9.38108
▁मुद्दे	-9.38224
A	-9.38243
▁लगती	-9.38303
5	-9.38335
▁[	-9.38336
▁सुनवाई	-9.38391
▁भले	-9.38403
▁परिषद	-9.38557
▁इनकी	-9.38717
▁शिकार	-9.38717
▁गो	-9.388
▁पकड़	-9.3885
▁रिकॉर्ड	-9.38967
▁नियम	-9.39149
▁पड़ी	-9.39234
▁शुभ	-9.39256
ठ	-9.39348
▁भुगतान	-9.39466
▁खाते	-9.39481
▁ऊर्जा	-9.39494
▁सिस्टम	-9.3968
▁चरण	-9.39845
G	-9.39877
ध	-9.40156
▁उपस्थित	-9.40181
▁रहेंगे	-9.4019
▁विकसित	-9.40197
▁संपर्क	-9.40296
▁भीड़	-9.40357
▁प्रचार	-9.40452
▁डाउनलोड	-9.40478
▁संविधान	-9.40562
▁I	-9.40576
▁कप्तान	-9.40595
▁27	-9.40661
▁महान	-9.40826
▁ट्वीट	-9.40861
▁गति	-9.40875
▁हां	-9.40933
p	-9.41073
▁हवा	-9.41086
▁भेजा	-9.41283
▁मुंह	-9.41342
ियो	-9.41359
▁आय	-9.41362
▁जिन्होंने	-9.41381
▁मिलाकर	-9.41412
▁इंग्लैंड	-9.41536
B	-9.41561
▁भूल	-9.41891
▁कर्मचारी	-9.41939
▁नोट	-9.41961
▁आसपास	-9.41963
▁जय	-9.42023
▁सदस्यों	-9.42108
ड़ी	-9.42113
▁बाइक	-9.42119
टा	-9.42196
▁दबाव	-9.42273
▁पल	-9.42291
▁बा	-9.4234
▁सुना	-9.42358
▁कितने	-9.42367
वादी	-9.42371
▁बालों	-9.42432
▁चैनल	-9.42433
▁कोहली	-9.42467
्र	-9.42552
मे	-9.4258
▁विराट	-9.42921
▁अंग्रेजी	-9.42926
▁सीरीज	-9.42995
▁अहम	-9.43203
▁स्वामी	-9.43363
▁बंगाल	-9.43376
▁वाहन	-9.4338
▁पटेल	-9.43399
9	-9.43537
▁31	-9.43566
▁मेहनत	-9.43618
ौ	-9.43739
आई	-9.43829
▁गैस	-9.43955
▁पढ़ाई	-9.44063
▁रहेगी	-9.44227
▁निर्धारित	-9.44229
▁सम्मेलन	-9.44339
▁मो	-9.44472
▁करो	-9.44565
मन	-9.44587
▁2014	-9.44642
▁अंतर्गत	-9.44647
▁रास्ते	-9.44785
▁गृह	-9.44793
दी	-9.44882
▁सामान	-9.44928
▁दिसंबर	-9.44986
▁महत्व	-9.45027
▁उपाय	-9.45063
▁मिलेगी	-9.45247
▁प्रो	-9.45274
▁बातों	-9.45291
िस	-9.45302
▁पालन	-9.45401
▁हिंदू	-9.45464
▁संसद	-9.45603
▁विद्यालय	-9.4564
▁प्रबंधन	-9.45786
▁स्मार्टफोन	-9.45872
▁इच्छा	-9.45954
▁गुप्ता	-9.45985
▁लड़कियों	-9.46065
▁सत्र	-9.46161
▁स्क्रीन	-9.46188
▁कितनी	-9.46212
▁बनाना	-9.46303
▁क्लिक	-9.46308
▁अवधि	-9.46372
▁एल	-9.46502
▁फरवरी	-9.46508
▁मृत्यु	-9.46511
▁रे	-9.46615
▁पहुंची	-9.46647
▁कमरे	-9.46676
▁ग्रुप	-9.46755
▁अल	-9.46844
▁मशीन	-9.47218
▁तलाश	-9.47219
▁जिनमें	-9.47232
तु	-9.47239
▁इंटरनेट	-9.4732
वार	-9.47475
▁वर्षीय	-9.47512
▁खुशी	-9.47593
▁लिंक	-9.47617
▁गिर	-9.47663
▁बिल्कुल	-9.47674
▁संस्था	-9.47707
▁निश्चित	-9.47709
▁सूत्रों	-9.47748
▁on	-9.47931
ेशन	-9.47941
▁न्यूज़	-9.47977
▁कड़ी	-9.48106
▁सारा	-9.48113
▁मुद्रा	-9.48206
▁तस्वीरें	-9.48272
▁सार्वजनिक	-9.48305
▁भ	-9.48457
▁गर्म	-9.48501
▁भवन	-9.48528
▁चीनी	-9.4858
पाल	-9.48794
▁सोने	-9.48819
▁समुदाय	-9.48839
मेंट	-9.48848
नाथ	-9.48858
▁केजरीवाल	-9.48871
▁सीबीआई	-9.48913
▁परन्तु	-9.48919
सर	-9.48934
▁तनाव	-9.49047
▁अनुमति	-9.4907
▁गाँव	-9.49196
▁वी	-9.49267
▁पैर	-9.49336
▁छूट	-9.49385
▁M	-9.49416
▁प्रशिक्षण	-9.49484
D	-9.4949
▁स्टार	-9.49539
▁नियंत्रण	-9.49556
▁ज्यादातर	-9.49653
▁भा	-9.49669
▁हिसाब	-9.49701
▁कपड़े	-9.49763
▁कवि	-9.49826
एन	-9.49903
▁लगने	-9.49933
▁यू	-9.49972
or	-9.49998
▁किलोमीटर	-9.5001
▁लेखक	-9.50026
▁खो	-9.50047
▁तीनों	-9.50088
▁सुन	-9.50162
▁फ़िल्म	-9.50163
▁मना	-9.50257
▁जैन	-9.50339
▁रो	-9.50344
▁अंतरराष्ट्रीय	-9.50375
▁कारोबार	-9.50465
▁गाड़ी	-9.50531
▁फूल	-9.50749
▁उद्योग	-9.50889
th	-9.51084
फ़	-9.51121
▁होटल	-9.51223
m	-9.51227
▁मनाया	-9.51362
▁हरा	-9.51512
▁कार्यकर्ताओं	-9.51525
▁दोपहर	-9.51531
k	-9.51551
▁रखे	-9.51563
सिन	-9.51673
▁हाई	-9.51812
▁हल	-9.51847
▁होनी	-9.51931
▁तीसरे	-9.52052
और	-9.52076
▁गोल	-9.52081
▁व्यवहार	-9.52131
▁दिख	-9.52238
▁चौधरी	-9.52328
▁ज़्यादा	-9.52416
▁दलित	-9.525
▁D	-9.5257
▁उचित	-9.52578
▁देखना	-9.52585
▁समस्याओं	-9.52616
▁वजन	-9.52669
▁पाई	-9.52905
▁बोले	-9.52942
▁मानना	-9.53159
▁बढ़ती	-9.5317
▁स्थल	-9.53227
▁कक्षा	-9.53246
▁घरेलू	-9.53375
▁समाधान	-9.53451
▁खाली	-9.53532
▁दृष्टि	-9.53554
▁शोध	-9.53675
▁G	-9.53762
▁नेशनल	-9.53783
▁जयपुर	-9.53809
▁गरीब	-9.53876
▁कर्नाटक	-9.53915
▁ऑफिस	-9.5394
▁चाय	-9.53968
▁कोड	-9.54029
▁हु	-9.54083
▁किताब	-9.54115
छ	-9.54216
।"	-9.54292
बे	-9.54295
▁कैंसर	-9.54358
▁ओवर	-9.54412
▁न्याय	-9.54413
▁प्रसिद्ध	-9.54437
▁छोटा	-9.54482
चा	-9.54515
▁बजाय	-9.54589
टर	-9.54641
▁रोकने	-9.5465
▁न्यूज	-9.54691
▁जिनके	-9.54751
▁मीटर	-9.54807
▁मर	-9.54998
▁जनरल	-9.55009
▁संदेश	-9.55012
▁2015	-9.55124
▁..	-9.55157
▁देगा	-9.5518
ाना	-9.55186
▁उत्पाद	-9.55222
शा	-9.55225
▁लॉन्च	-9.55256
ेंगे	-9.55302
▁सकें	-9.55326
▁मंडल	-9.55374
▁वास्तव	-9.55386
▁बैठ	-9.55403
▁सफाई	-9.55423
▁मेडिकल	-9.55522
▁प्रेस	-9.55529
▁संबंधी	-9.55557
▁माल	-9.55676
▁मानते	-9.55751
▁दिये	-9.55823
▁60	-9.55886
▁ताजा	-9.5593
▁माहौल	-9.5593
▁प्रणाली	-9.56093
▁केरल	-9.56143
▁[]	-9.56153
▁गुणवत्ता	-9.56179
▁लिख	-9.56183
▁वायरल	-9.56201
▁2019	-9.56211
रिया	-9.56244
▁रास्ता	-9.56278
▁पेड़	-9.56475
▁T	-9.5651
▁उपचार	-9.56516
▁कमजोर	-9.56593
▁इनका	-9.56606
▁मान्यता	-9.56659
▁सर्व	-9.56729
▁गोली	-9.56832
▁योगदान	-9.56906
▁बोली	-9.57057
▁कंप्यूटर	-9.57163
▁प्रकृति	-9.57211
g	-9.57306
▁जाएं	-9.57322
▁हिंसा	-9.57385
▁दुकान	-9.57403
▁आना	-9.57462
जो	-9.57465
▁पारी	-9.57475
ेड	-9.57475
▁जगत	-9.57827
▁नियमित	-9.5785
▁अंतर	-9.57941
▁प्राकृतिक	-9.58014
एम	-9.58026
▁बीते	-9.58027
मान	-9.58073
▁पाते	-9.58163
▁याचिका	-9.58197
▁आराम	-9.5829
▁पीड़ित	-9.58309
▁मिलते	-9.58321
्ड	-9.58513
▁लगते	-9.5856
▁सुनिश्चित	-9.58606
▁कल्याण	-9.58667
▁आखिरी	-9.58969
▁महिलाएं	-9.59
▁जितना	-9.59063
▁सपा	-9.59093
▁उत्तराखंड	-9.59104
▁टैक्स	-9.59123
सिंह	-9.59125
▁केस	-9.59227
20	-9.5924
▁पड़ेगा	-9.59298
ंट	-9.59306
▁अशोक	-9.59313
▁आशा	-9.59431
▁बढ़ने	-9.59463
▁अखिलेश	-9.5947
▁जानने	-9.59472
▁गा	-9.59536
▁बचाने	-9.59599
▁डि	-9.59626
▁थाने	-9.5971
▁मालिक	-9.59799
▁कार्यों	-9.59848
▁s	-9.5992
▁स्व	-9.60077
▁E	-9.60122
▁जिसने	-9.60197
▁ईश्वर	-9.60314
▁आस	-9.60321
▁इंतजार	-9.60325
▁लड़ाई	-9.60405
▁नीतीश	-9.60466
▁जिम्मेदारी	-9.60516
▁युवाओं	-9.60604
▁काले	-9.60751
▁करवा	-9.60777
▁गाने	-9.60825
▁आकार	-9.60854
▁खूबसूरत	-9.60959
वां	-9.60985
▁पढ़े	-9.61015
an	-9.6105
▁तरीका	-9.61053
ण्ड	-9.61091
▁मानसिक	-9.61091
▁शीर्ष	-9.61112
▁पीने	-9.61151
▁दिखा	-9.61271
▁बताने	-9.61274
▁पुस्तक	-9.61299
▁बच्चा	-9.6134
▁चोरी	-9.61415
▁मतदान	-9.61509
▁भोपाल	-9.61604
▁दु	-9.61686
हर	-9.6179
▁परियोजना	-9.61901
on	-9.61901
▁सि	-9.61909
▁श	-9.61958
▁गईं	-9.62141
गंज	-9.62146
▁चीज	-9.62162
▁विधि	-9.62166
▁Read	-9.62169
▁दूरी	-9.62169
h	-9.62285
▁पढ़	-9.62317
▁वित्तीय	-9.62362
▁पुरानी	-9.6243
▁गौरतलब	-9.62464
▁आजकल	-9.62541
▁लगाकर	-9.62557
▁जमकर	-9.62693
िल	-9.62715
▁संकेत	-9.62804
▁हालात	-9.62855
▁हुये	-9.62924
▁पढ़ने	-9.62996
▁29	-9.63098
▁दिखाया	-9.631
इन	-9.6313
▁कार्यकर्ता	-9.63176
▁फाइनल	-9.6325
खा	-9.63259
▁नागरिक	-9.63338
▁दिमाग	-9.6347
▁अमर	-9.63629
गढ़	-9.63649
▁अभिनेता	-9.6366
▁निदेशक	-9.63687
▁किरदार	-9.63718
यें	-9.63887
▁चुनौती	-9.6389
▁व्यक्त	-9.63937
▁सीटों	-9.63965
▁प्रभारी	-9.63984
▁परिजनों	-9.64066
▁बचा	-9.64275
▁आवास	-9.6431
▁इंडियन	-9.64374
▁रचना	-9.64525
▁बेहतरीन	-9.64534
▁मध्यप्रदेश	-9.64561
▁शहरों	-9.64614
▁नामक	-9.64618
▁२	-9.64623
▁वर्मा	-9.64626
▁भरा	-9.64787
▁अपील	-9.64822
▁सवार	-9.64827
▁दीपक	-9.64906
िए	-9.64945
▁मित्र	-9.65225
देव	-9.65234
ेट	-9.65341
▁लोकप्रिय	-9.65381
▁मारे	-9.65426
▁अवैध	-9.65459
▁लेता	-9.65629
▁मौजूदा	-9.65638
▁H	-9.6571
▁विशाल	-9.6573
▁दम	-9.65938
▁पर्यावरण	-9.6598
▁उम्मीदवारों	-9.65989
मो	-9.66029
▁गणेश	-9.66086
▁बि	-9.66166
▁कथा	-9.66375
▁करियर	-9.66393
▁लि	-9.66415
R	-9.66535
▁एजेंसी	-9.66566
▁स्वतंत्रता	-9.66623
▁1.	-9.66774
गे	-9.66776
▁स्कूलों	-9.66898
▁दवा	-9.66917
▁कमाई	-9.66936
▁आधुनिक	-9.66964
▁कोलकाता	-9.67058
िये	-9.67231
▁विरोधी	-9.67258
▁उठाया	-9.67333
▁मिश्रा	-9.67424
es	-9.67474
▁तिवारी	-9.67491
▁तारीख	-9.67534
▁प्रवक्ता	-9.67664
ेश्वर	-9.67753
▁व्रत	-9.67764
▁शारीरिक	-9.67817
▁रोल	-9.67839
▁उत्पन्न	-9.67881
▁लौट	-9.67914
क्स	-9.67917
▁समीक्षा	-9.6799
▁चिकित्सा	-9.68054
▁गु	-9.68174
▁दलों	-9.68284
▁श्रेणी	-9.68304
▁हिस्से	-9.68337
▁समझा	-9.68379
C	-9.68389
x	-9.68424
▁यानि	-9.68504
▁प्लान	-9.68517
▁स्वस्थ	-9.68548
F	-9.68554
ri	-9.68556
▁संबोधित	-9.68579
▁किन्तु	-9.68646
▁कहां	-9.68661
▁यौन	-9.68909
M	-9.68937
▁बिक्री	-9.6913
▁यूनिवर्सिटी	-9.69172
▁तिथि	-9.69266
▁K	-9.69418
डे	-9.69565
▁खून	-9.69599
▁In	-9.69602
्या	-9.6966
ेगा	-9.6968
▁छोड़कर	-9.69776
▁शा	-9.69878
▁चुनावों	-9.69881
▁प्रतियोगिता	-9.69919
▁संत	-9.70001
काल	-9.70043
▁रा	-9.7006
ार	-9.70272
▁तोड़	-9.70299
▁नेपाल	-9.70356
पूर्ण	-9.70441
▁विमान	-9.70499
▁सक्रिय	-9.70547
▁संपत्ति	-9.70626
▁योग्य	-9.70663
ेज	-9.70803
▁सम्मानित	-9.70833
▁छ	-9.709
▁वेतन	-9.70911
▁मशहूर	-9.71107
▁ग्रहण	-9.71136
▁दान	-9.7116
▁अनिल	-9.71208
▁अंग	-9.71211
लो	-9.71243
ीकरण	-9.71299
▁भावना	-9.71315
ंद	-9.71372
▁चाहिये	-9.71606
▁पीठ	-9.71714
▁चारों	-9.71729
१	-9.71873
▁गठबंधन	-9.71873
▁ऐतिहासिक	-9.71963
▁बच्ची	-9.72009
▁सपना	-9.72106
▁गेंद	-9.72125
▁संकट	-9.72126
यर	-9.72262
▁आरक्षण	-9.72295
▁तकनीक	-9.724
▁इलाहाबाद	-9.72521
दर	-9.72535
▁नींद	-9.72718
▁अभिनेत्री	-9.72782
▁हाँ	-9.72789
▁रुप	-9.72798
▁उतार	-9.72841
▁झारखंड	-9.7289
▁नयी	-9.72944
▁अजय	-9.73037
▁आयु	-9.73037
ही	-9.73078
▁रु	-9.73141
▁शुल्क	-9.73168
▁मि	-9.73213
▁ठाकुर	-9.7324
....	-9.73292
▁रैली	-9.73391
▁गूगल	-9.73424
▁लालू	-9.73483
▁कराई	-9.735
▁पृथ्वी	-9.73587
हे	-9.7363
▁लड़के	-9.73744
सन	-9.73764
▁बचपन	-9.73801
वान	-9.73815
▁प्राचीन	-9.73823
▁पत्रकारों	-9.73843
N	-9.73848
▁डाला	-9.73877
▁मंत्र	-9.73882
▁तुम्हारे	-9.73898
▁मुझसे	-9.74008
▁सोचा	-9.74081
▁लिखी	-9.74191
re	-9.74252
▁अन	-9.74305
▁इसीलिए	-9.74356
▁गुण	-9.74552
▁हफ्ते	-9.74579
▁उधर	-9.74607
▁लागत	-9.74657
▁कहती	-9.74693
▁35	-9.7472
▁महाराज	-9.74764
▁बरामद	-9.74789
▁परिसर	-9.7482
▁हा	-9.74856
▁70	-9.74863
बर	-9.74888
ेस	-9.7489
▁ट्रंप	-9.74976
▁पेज	-9.74998
▁आंखों	-9.75101
▁पहुंचने	-9.75123
▁कर्म	-9.7523
▁हाउस	-9.75256
K	-9.75311
▁आत्मा	-9.75333
▁रक्त	-9.75375
▁खुलासा	-9.75385
▁लगाई	-9.75443
▁मकान	-9.7549
▁विज्ञापन	-9.75507
नो	-9.75561
ान	-9.75731
▁माने	-9.75986
वाल	-9.76014
▁दास	-9.76025
▁कट	-9.7627
▁जवान	-9.76277
▁घरों	-9.76346
▁मंगल	-9.76373
▁नीला	-9.7644
▁किशोर	-9.76575
▁बाढ़	-9.76605
▁शूटिंग	-9.76611
▁बधाई	-9.76661
टो	-9.76725
▁रहीं	-9.76751
▁शांत	-9.76795
ॉ	-9.76802
▁मोहम्मद	-9.76865
▁विवरण	-9.76884
▁दौड़	-9.76982
▁पर्याप्त	-9.77027
▁विपक्ष	-9.77027
▁प्रभु	-9.77104
▁पर्व	-9.77173
▁ऐ	-9.77184
▁वैज्ञानिक	-9.77233
▁हजारों	-9.77339
▁अप	-9.77344
▁खिलाड़ियों	-9.77409
▁खतरा	-9.77512
▁वर्ण	-9.7756
वाला	-9.7759
▁बराबर	-9.77605
▁व्यापक	-9.77768
▁कथित	-9.77792
en	-9.77898
▁गिरावट	-9.77985
▁मुफ्त	-9.78039
कि	-9.78053
▁जीएसटी	-9.78253
▁पहुँच	-9.78269
▁इलाकों	-9.78322
▁आरोपियों	-9.78342
▁सका	-9.78344
▁हद	-9.78367
▁डिजिटल	-9.78384
▁बैंकों	-9.78564
▁अवश्य	-9.78588
▁जिसमे	-9.78723
▁ताकत	-9.78756
▁समाजवादी	-9.78858
▁दौरे	-9.7889
▁डेटा	-9.7897
▁साथी	-9.78995
▁लंबी	-9.79121
▁गर्मी	-9.79179
▁समझने	-9.79217
▁खोल	-9.7926
मु	-9.79378
▁बनाये	-9.79419
शी	-9.79588
▁बिग	-9.79629
ta	-9.79633
▁पदक	-9.79669
क्ष	-9.79774
▁नोटबंदी	-9.79806
▁अटल	-9.79899
▁रूस	-9.79912
▁आतंकी	-9.79914
▁''	-9.79928
▁कठिन	-9.79945
▁खेती	-9.7996
▁अनु	-9.7996
▁बॉक्स	-9.79972
▁पुल	-9.80025
▁लाखों	-9.80075
ur	-9.8013
▁प्रियंका	-9.80174
▁खबरें	-9.80312
वन	-9.80453
▁नये	-9.80466
▁सन	-9.80576
▁पूछताछ	-9.80617
▁बुरा	-9.80645
▁बदलने	-9.80681
▁पार्क	-9.80701
▁प्रमाण	-9.80713
▁अकाउंट	-9.80818
गो	-9.80854
▁अति	-9.80855
▁कार्यवाही	-9.80888
▁भरोसा	-9.80888
▁क्रम	-9.80905
▁जाय	-9.8094
▁कहता	-9.81021
▁रखता	-9.81034
▁इसको	-9.81042
▁2013	-9.81085
▁चौहान	-9.81112
▁सक्षम	-9.81138
▁दशक	-9.8119
ष	-9.81378
▁खड़ी	-9.81394
▁शुरु	-9.81411
▁सुपर	-9.81419
▁रानी	-9.81435
▁हृदय	-9.81541
▁किनारे	-9.81561
▁कॉल	-9.81613
▁स्थानों	-9.81651
H	-9.81658
▁हादसे	-9.81684
▁शख्स	-9.81706
L	-9.81744
▁साइट	-9.81751
▁टाइम	-9.81776
▁शिक्षकों	-9.81779
▁व्यवसाय	-9.81796
▁खाद्य	-9.81865
▁ग्राहकों	-9.81953
▁तुम्हें	-9.82044
le	-9.82216
▁नरेन्द्र	-9.82261
▁आगामी	-9.82273
ड़े	-9.82277
▁80	-9.82494
▁एशिया	-9.82546
स्त	-9.82548
▁सम	-9.82647
▁अखबार	-9.82724
▁चलाने	-9.82734
▁क्लास	-9.8278
▁लिस्ट	-9.82797
▁गले	-9.8286
▁परीक्षण	-9.82864
▁गलती	-9.8288
▁लिखे	-9.82906
▁दूसरों	-9.82935
▁ढंग	-9.82971
▁सेंटर	-9.82996
▁बीज	-9.83011
▁एक्सप्रेस	-9.83038
ऊ	-9.83112
▁बुरी	-9.83138
▁बेटा	-9.83158
▁कर्ज	-9.83165
▁प्रतिक्रिया	-9.83179
▁तू	-9.83254
▁दाम	-9.83272
▁भरी	-9.83357
▁f	-9.83379
▁डॉकटर	-9.83396
▁जिलों	-9.83398
▁मेड़ी	-9.83428
▁रिश्ते	-9.83531
यां	-9.8355
▁लूट	-9.83555
▁बैठा	-9.83579
िश	-9.83588
▁अग्रवाल	-9.83677
▁R	-9.83712
ation	-9.83728
▁सिटी	-9.83822
▁तकनीकी	-9.83884
▁गठन	-9.8393
▁Home	-9.84034
▁लीटर	-9.84098
▁कमेटी	-9.8411
▁हटा	-9.84126
ास	-9.84192
▁लेंगे	-9.84251
▁योजनाओं	-9.84258
▁संसार	-9.84279
▁स्वरूप	-9.84304
▁वर्ल्ड	-9.84315
▁फसल	-9.84427
▁कल्पना	-9.84465
▁आमतौर	-9.84471
▁for	-9.84651
म्	-9.84713
▁धरती	-9.8479
▁सिद्ध	-9.84829
▁पाता	-9.84835
▁जाहिर	-9.8486
ad	-9.84983
▁प्रदूषण	-9.85008
▁चंद्र	-9.85053
▁आजादी	-9.85112
▁कैमरा	-9.85224
▁मजबूर	-9.85236
▁पो	-9.85254
▁बलात्कार	-9.8537
▁एक्ट्रेस	-9.85396
▁200	-9.85411
▁निर्माता	-9.85479
▁0	-9.85482
▁रेखा	-9.85483
▁लिमिटेड	-9.85526
ar	-9.8553
▁सम्बन्ध	-9.85592
▁आधिकारिक	-9.85655
▁बदले	-9.85783
▁रूपये	-9.8593
▁L	-9.85999
दो	-9.86005
▁परंतु	-9.86021
▁शेर	-9.86035
ाव	-9.86056
▁व्यक्तिगत	-9.8612
▁निशाना	-9.86187
ंक	-9.8623
▁नेटवर्क	-9.864
▁राज्यपाल	-9.86434
▁डिजाइन	-9.86455
▁पहल	-9.86522
▁ट्विटर	-9.86653
▁इधर	-9.86655
▁यात्रियों	-9.86691
▁विचारों	-9.86716
▁सकेंगे	-9.86728
▁नव	-9.86786
▁गाय	-9.86789
▁संरक्षण	-9.86911
▁N	-9.86954
▁तैनात	-9.86961
▁जीतने	-9.86984
▁मिट्टी	-9.86991
▁इस्लाम	-9.87004
▁लक्ष्मी	-9.87122
▁एक्स	-9.87161
▁घटनाओं	-9.87232
▁चम्मच	-9.87279
▁डीजल	-9.87315
ानी	-9.87384
▁हाईकोर्ट	-9.87411
▁टूट	-9.87428
▁आदित्यनाथ	-9.8744
▁री	-9.87455
▁जंगल	-9.87459
▁दैनिक	-9.87464
▁चोट	-9.87494
▁अरविंद	-9.87496
▁चिकित्सक	-9.87509
▁उत्पादों	-9.87531
▁पि	-9.87553
▁बच	-9.87578
धीरे	-9.87631
▁सफेद	-9.87643
v	-9.87722
▁रोहित	-9.87725
▁सुनकर	-9.87758
▁500	-9.87831
▁अधिकांश	-9.87873
▁हिमाचल	-9.879
at	-9.87945
▁टिप्पणी	-9.87979
▁भरे	-9.8799
▁2.	-9.88048
▁उतर	-9.88125
▁अनुमान	-9.8816
▁निधन	-9.88188
▁चीजों	-9.88226
▁तत्व	-9.88236
▁डालकर	-9.88293
▁राजीव	-9.88317
▁चित्र	-9.88342
▁स्	-9.88479
▁इं	-9.88484
▁एसपी	-9.88494
ंज	-9.88508
▁आलोचना	-9.88528
▁मनोज	-9.88536
▁सेक्टर	-9.88538
▁हवाई	-9.8856
▁कहाँ	-9.8861
▁ड	-9.88686
▁झा	-9.88689
▁खरीदने	-9.88713
पिता	-9.88831
▁नोटिस	-9.88834
▁दर्शकों	-9.88889
▁संचालन	-9.88929
am	-9.88934
्यु	-9.8905
▁उपकरण	-9.89128
▁बनाते	-9.89158
▁युग	-9.89341
ाने	-9.89515
▁देखे	-9.89579
▁ग्रामीणों	-9.89612
▁कौशल	-9.89651
▁बहस	-9.89675
▁More	-9.89717
▁मूर्ति	-9.89735
▁भू	-9.89758
▁भाषण	-9.89793
▁हैदराबाद	-9.89818
▁करार	-9.89864
▁लाइफ	-9.90087
▁एयर	-9.90115
▁क्लब	-9.90144
▁विटामिन	-9.90225
▁सिनेमा	-9.90229
▁मार्केट	-9.90231
▁सबको	-9.90331
▁काट	-9.90496
▁ग्रह	-9.90496
W	-9.90555
सु	-9.90581
▁बह	-9.90692
▁काला	-9.90777
▁आबादी	-9.90825
▁मुद्दों	-9.90907
na	-9.90918
ात्मक	-9.9093
बल	-9.90984
तर	-9.91021
▁लुक	-9.91115
२	-9.91152
▁लिखने	-9.91153
▁पत्थर	-9.9116
▁सुनने	-9.91241
▁सरल	-9.91263
▁साझा	-9.91299
पत्र	-9.91307
▁य	-9.91334
▁सकारात्मक	-9.91456
▁अकेले	-9.91474
▁ऐप	-9.91575
▁घ	-9.91631
षि	-9.91648
रु	-9.91696
▁दा	-9.91704
st	-9.91811
▁हित	-9.91867
▁देखी	-9.91891
▁औसत	-9.91918
▁आवाज़	-9.9192
▁अरुण	-9.91956
▁लेती	-9.92
रों	-9.92023
▁कीमतों	-9.9223
▁तत्काल	-9.92312
कारी	-9.92383
▁दुख	-9.92403
िस्ट	-9.92576
▁वस्तु	-9.92589
▁रणनीति	-9.92629
▁आदर्श	-9.92644
▁32	-9.92679
▁पुरुषों	-9.92711
▁बांध	-9.92784
▁मुख्यालय	-9.92799
▁उठाने	-9.92801
▁धमकी	-9.92816
▁निकलने	-9.92894
▁जिम्मेदार	-9.92968
रि	-9.92986
▁सुनील	-9.93001
▁भाभी	-9.93041
▁धन्यवाद	-9.93125
▁आधा	-9.93127
▁दोबारा	-9.93205
हम	-9.93255
▁नियमों	-9.93255
▁चुनावी	-9.9333
▁सेट	-9.93359
▁खेलने	-9.93389
लि	-9.93419
ेन	-9.93601
▁अर्थव्यवस्था	-9.93601
▁मालूम	-9.93627
▁वापसी	-9.93771
▁बढ़ावा	-9.93846
▁मिशन	-9.93872
▁नारायण	-9.93933
▁बचाव	-9.93972
▁लोकतंत्र	-9.94109
▁संगठनों	-9.94141
▁निर्भर	-9.94183
▁सेहत	-9.94188
▁अहमद	-9.94208
यी	-9.9425
▁समस्त	-9.9426
▁समुद्र	-9.94421
▁आउट	-9.9443
▁पुष्टि	-9.94504
▁पवित्र	-9.94528
▁लगाते	-9.94583
▁फिल्में	-9.94611
▁विष्णु	-9.94639
▁लाया	-9.94756
▁एकदम	-9.94773
▁फ्री	-9.94782
▁दोषी	-9.94785
▁चेक	-9.94891
ंच	-9.94934
▁पेपर	-9.94962
▁बताई	-9.94989
▁ऑस्ट्रेलिया	-9.94994
▁सांस	-9.9501
▁बो	-9.95057
ंत	-9.95095
▁खबरों	-9.95205
▁अन्दर	-9.95221
▁अध्यक्षता	-9.95231
▁V	-9.95242
▁तरंग	-9.95283
▁असम	-9.95329
▁भरपूर	-9.95414
▁कोरिया	-9.95445
E	-9.95512
▁सफर	-9.95713
▁मह	-9.95751
▁सागर	-9.95752
▁उतना	-9.95758
में	-9.95789
▁वास्तविक	-9.95849
▁अर्थात	-9.95864
र्	-9.95911
ेंट	-9.95921
▁चेहरा	-9.95961
▁संग्रह	-9.95971
▁प्रिय	-9.95986
▁W	-9.95991
▁प्राथमिक	-9.96028
त्र	-9.96081
▁करवाया	-9.96189
म्प	-9.963
▁होंगी	-9.96359
ly	-9.96392
▁अक्षय	-9.96414
िट	-9.96444
▁उल्लेख	-9.96564
▁ध	-9.96695
▁वकील	-9.96702
▁तापमान	-9.96712
▁वातावरण	-9.9674
यह	-9.96863
▁राजेश	-9.96868
▁ममता	-9.96885
▁खुले	-9.96899
▁विरुद्ध	-9.96972
w	-9.97031
▁परमाणु	-9.97031
▁संवाद	-9.97042
▁डांस	-9.97049
▁पावर	-9.97096
▁पाठ	-9.97121
र्ट	-9.97327
घ	-9.97335
▁प्राप्ति	-9.97396
▁आएगा	-9.97402
▁संस्कार	-9.97405
▁ट	-9.97411
▁खेत	-9.97436
▁मारने	-9.97445
चर	-9.97493
▁प्रार्थना	-9.97643
▁जि	-9.97666
▁बचने	-9.97669
▁आपूर्ति	-9.97682
▁जिनका	-9.97688
▁स्वतंत्र	-9.97724
▁स्तन	-9.97785
▁अभ्यास	-9.97878
▁उक्त	-9.97896
▁सीमित	-9.97917
▁राह	-9.97945
▁महज	-9.97964
."	-9.97978
j	-9.97986
ch	-9.98074
▁दिवाली	-9.98091
ुआ	-9.98125
et	-9.98175
▁90	-9.98179
▁चुदाई	-9.98292
el	-9.98302
▁अफ्रीका	-9.98348
▁अंतर्राष्ट्रीय	-9.98361
▁सुनाई	-9.98378
▁वितरण	-9.98496
तो	-9.98518
▁पापा	-9.98579
▁बर	-9.98621
भर	-9.98631
▁छवि	-9.98647
▁जु	-9.98813
▁बढ़ते	-9.98873
▁पाकिस्तानी	-9.98891
▁लड़	-9.98948
▁मैचों	-9.98969
▁उद्घाटन	-9.98969
▁अंजाम	-9.9897
▁सुझाव	-9.98978
▁मेल	-9.98995
▁वेब	-9.99002
▁रुक	-9.99005
कों	-9.99008
▁निकाला	-9.99061
▁प्रोजेक्ट	-9.99072
▁चौक	-9.99113
▁अतः	-9.99171
▁सड़कों	-9.99229
▁बीमा	-9.99327
▁औ	-9.99375
▁अधिनियम	-9.99386
ra	-9.99402
▁मास्टर	-9.99424
▁झ	-9.99428
▁सर्विस	-9.99454
▁गांवों	-9.99567
वल	-9.9957
▁असली	-9.99608
▁पाएंगे	-9.9962
▁बिजनेस	-9.99635
▁पत्रकारिता	-9.99663
▁आपसे	-9.99676
▁टॉप	-9.99679
▁मोहन	-9.99718
चार	-9.99788
▁वाजपेयी	-9.99864
▁जिनकी	-10.0003
▁c	-10.0014
▁वैश्विक	-10.0016
▁निकालने	-10.0021
दान	-10.0023
▁नियुक्त	-10.0026
▁प्रताप	-10.0027
▁पड़ती	-10.0028
▁बनकर	-10.0032
li	-10.0034
▁संकल्प	-10.0051
▁वीर	-10.0051
▁सांस्कृतिक	-10.0053
▁जापान	-10.0057
▁निर्वाचन	-10.0058
▁ईरान	-10.0061
यो	-10.0064
▁रखकर	-10.0065
▁जरिये	-10.0068
▁स्टेट	-10.0076
▁लंदन	-10.0077
▁फा	-10.0081
▁नियुक्ति	-10.0087
▁भरने	-10.0091
▁पत्रिका	-10.0098
▁b	-10.0098
▁कोच	-10.0105
▁सितम्बर	-10.011
▁आशंका	-10.0113
▁चक्कर	-10.0119
▁शि	-10.0122
▁जानी	-10.0127
कल	-10.0134
▁चीजें	-10.0134
▁जेटली	-10.0135
▁परंपरा	-10.0139
▁प्रेरित	-10.0146
▁जितनी	-10.0149
▁सबके	-10.0156
▁रेप	-10.016
▁पर्यटन	-10.0168
▁केन्द्रीय	-10.0177
▁बल्लेबाज	-10.0182
▁स्कोर	-10.0186
▁मुकदमा	-10.0192
▁कै	-10.0193
▁नमक	-10.0193
▁शहीद	-10.0195
भा	-10.0206
▁जायेगी	-10.0211
▁कानूनी	-10.0214
हार	-10.0221
▁अनिवार्य	-10.0221
▁जीव	-10.0227
▁कलाकार	-10.0242
▁डायरेक्टर	-10.0244
▁जोड़ी	-10.0244
▁उठ	-10.0246
▁सीधा	-10.025
▁l	-10.025
▁अगली	-10.0251
▁परमेश्वर	-10.0254
▁बच्चन	-10.0256
▁प्रेरणा	-10.0261
▁हथियार	-10.0264
▁सिन्हा	-10.0266
▁योग्यता	-10.0274
▁प्रतीक	-10.0275
▁ब्रिटेन	-10.0275
▁वनडे	-10.0276
▁बिलकुल	-10.0279
▁वा	-10.0279
▁अनुमानित	-10.0287
▁सहारा	-10.0295
▁इंच	-10.0303
ाल	-10.0308
चे	-10.0311
▁तलाक	-10.0313
फा	-10.0321
▁ज़	-10.0322
▁विशिष्ट	-10.0324
▁मंजूरी	-10.0329
▁श्रीलंका	-10.033
▁अर्जुन	-10.0332
▁संदर्भ	-10.0333
▁पंडित	-10.0336
▁वार्ड	-10.0338
▁जानता	-10.034
▁दि	-10.0343
▁भोजपुरी	-10.0344
▁चमक	-10.0351
▁तथ्य	-10.0359
te	-10.0371
▁नष्ट	-10.0388
V	-10.0397
▁चालक	-10.0399
▁मुद्दा	-10.0399
▁जीता	-10.04
▁जिक्र	-10.0402
▁45	-10.0403
▁ऐलान	-10.0408
ेंस	-10.0409
▁राव	-10.0413
▁दिखाने	-10.0415
▁पढ़ा	-10.0434
▁प्रतिबंध	-10.0438
▁एच	-10.0439
▁बढ़कर	-10.0443
▁विधान	-10.0445
पुरा	-10.0446
▁गतिविधियों	-10.0453
▁जायेंगे	-10.0458
कभी	-10.0459
क्	-10.0459
▁संचालित	-10.0462
▁मस्जिद	-10.0469
▁रोजाना	-10.0469
सो	-10.047
▁काली	-10.047
▁पदार्थ	-10.0475
▁प्रतिमा	-10.0475
स्	-10.0478
▁अयोध्या	-10.0485
▁जोड़	-10.0491
▁आत्महत्या	-10.0493
▁3.	-10.0502
▁प्रकट	-10.0506
।'	-10.051
▁हटाने	-10.0515
▁मुक्ति	-10.0528
▁धोनी	-10.0534
▁is	-10.0536
▁खुल	-10.0537
▁तर्क	-10.0539
▁मुसलमानों	-10.054
▁महीनों	-10.0544
रूप	-10.0565
▁जस्टिस	-10.0566
▁de	-10.0568
▁शेष	-10.0573
▁चेन्नई	-10.0574
▁सीख	-10.0576
▁अवस्था	-10.0578
▁आइए	-10.058
▁सन्	-10.0584
हि	-10.0585
दूसरे	-10.059
▁इंजन	-10.0593
▁खेलों	-10.0593
▁उपाध्यक्ष	-10.0601
▁दुर्घटना	-10.0611
la	-10.0613
▁तुम्हारी	-10.0621
▁फरार	-10.0625
टे	-10.0629
▁एक्ट	-10.0631
▁इत्यादि	-10.0632
र्क	-10.0633
▁बम	-10.0634
▁प्रत्याशी	-10.0636
▁re	-10.0638
▁यहीं	-10.0658
▁भक्त	-10.066
▁फ़	-10.0665
▁लाइव	-10.0666
▁जुड़ा	-10.0667
▁सर्वश्रेष्ठ	-10.0668
▁जियो	-10.068
▁अनुसंधान	-10.068
▁वायु	-10.0685
▁गरम	-10.0693
▁दिनांक	-10.0701
▁स्वर्ण	-10.0705
▁लव	-10.0706
▁भूख	-10.0713
▁मुकाबला	-10.0716
▁दाखिल	-10.072
▁रेड	-10.0727
▁बनता	-10.0727
दे	-10.0728
▁वाहनों	-10.0733
▁रिजल्ट	-10.0735
▁आहार	-10.0738
▁मैने	-10.0738
लर	-10.0739
ूर	-10.074
▁बुक	-10.0743
I	-10.0743
▁दोष	-10.0745
▁प्राइवेट	-10.0748
रण	-10.0749
▁Ka	-10.0752
▁ता	-10.0753
▁प्रभावी	-10.0754
▁वक़्त	-10.0755
▁निर्देशक	-10.0755
▁2012	-10.0757
त्व	-10.0764
▁आतंकवाद	-10.0765
▁चेतावनी	-10.0767
▁व्यक्तियों	-10.0771
▁खतरनाक	-10.0774
▁खाता	-10.0779
U	-10.0788
▁कृपा	-10.0792
▁देखिए	-10.0793
आप	-10.0794
▁अधिकतर	-10.0794
▁सपने	-10.0794
▁इंदौर	-10.0797
▁ब्राह्मण	-10.0798
▁रवि	-10.0799
▁2011	-10.0801
▁रूम	-10.0804
▁ट्रक	-10.0811
▁जड़	-10.082
▁लोन	-10.0825
▁मारपीट	-10.0833
▁वार्ता	-10.0834
▁हनुमान	-10.0837
▁चुना	-10.0839
▁उड़	-10.0844
▁शैली	-10.0845
्म	-10.0853
▁कानपुर	-10.0864
it	-10.0871
▁India	-10.0872
▁साफ़	-10.0875
-20	-10.0884
▁शिविर	-10.0885
▁स्मार्ट	-10.0911
▁कृपया	-10.0914
▁संस्करण	-10.0914
▁तंत्र	-10.0915
▁घाट	-10.0917
▁जोशी	-10.092
▁शक	-10.0927
▁जगहों	-10.0927
▁उत्साह	-10.0931
▁संशोधन	-10.0934
▁शुद्ध	-10.094
▁नागरिकों	-10.0942
▁अल्लाह	-10.0948
▁ब्लॉक	-10.0967
▁कपिल	-10.0968
ुल	-10.0972
il	-10.0972
करण	-10.0976
▁बिहारी	-10.0979
ज़ा	-10.0987
क़	-10.0988
▁न्यू	-10.0994
▁विद्या	-10.0994
▁पश्चिमी	-10.1003
वाली	-10.1019
▁बहु	-10.1019
▁more	-10.102
▁चलती	-10.103
▁मध्यम	-10.1036
▁अंदाज	-10.104
▁मुँह	-10.1043
://	-10.105
▁पूजन	-10.1051
▁दीपिका	-10.1054
▁प्रतिदिन	-10.1055
▁रू	-10.1056
▁आयी	-10.1067
▁नवम्बर	-10.1073
▁देगी	-10.1079
ंध	-10.1081
▁ज़रूरत	-10.1083
▁बोलने	-10.1093
मैन	-10.1098
▁लगेगा	-10.1102
O	-10.1108
▁आदत	-10.1119
▁हमे	-10.112
▁तमिलनाडु	-10.1121
▁सीटें	-10.1122
▁बॉस	-10.1125
▁सर्वे	-10.1126
▁अद्भुत	-10.1127
▁अमिताभ	-10.1127
▁गौरव	-10.1142
▁प्रौद्योगिकी	-10.1145
▁परिवारों	-10.1146
▁शंकर	-10.1149
▁आँखों	-10.1151
▁लॉ	-10.1153
▁पाउडर	-10.1157
▁प्रोग्राम	-10.116
▁किलो	-10.1167
▁सीजन	-10.1168
एफ	-10.117
▁छत	-10.1172
▁मी	-10.1176
▁टूर्नामेंट	-10.1177
▁ब्रिटिश	-10.1179
▁फॉर्म	-10.1179
▁शपथ	-10.1181
ma	-10.1181
▁सचिन	-10.1183
एच	-10.1198
▁बुलाया	-10.1203
▁स्टोर	-10.1208
▁परम	-10.1212
▁बढ़ता	-10.1215
▁लेखन	-10.1222
▁एशियाई	-10.1234
▁नेहरू	-10.1235
वाले	-10.1237
▁निकले	-10.124
▁गोल्ड	-10.1243
▁हरी	-10.1244
मैं	-10.1251
▁मिश्र	-10.1254
▁बीमार	-10.1255
▁टक्कर	-10.1265
ची	-10.1282
▁विजेता	-10.1282
▁जन्मदिन	-10.1286
▁भय	-10.1291
▁फर्जी	-10.1292
▁इंटरव्यू	-10.1292
▁महात्मा	-10.1295
▁ब्रांड	-10.1303
▁पाठक	-10.1309
▁यात्री	-10.1314
▁अतिथि	-10.1315
25	-10.1316
▁कहे	-10.1322
▁मुसलमान	-10.1323
▁साधारण	-10.1328
▁लिंग	-10.1332
▁गेट	-10.1337
▁अश्लील	-10.1338
▁राकेश	-10.1344
▁व्यापारी	-10.1347
▁पै	-10.1353
जीत	-10.136
▁रिसर्च	-10.1368
▁भक्ति	-10.1373
▁गिरफ्तारी	-10.1378
▁विपरीत	-10.1382
▁कमल	-10.1383
▁मारा	-10.1385
ाय	-10.1385
un	-10.1387
▁मुलायम	-10.1388
▁क्रिया	-10.1392
▁गौर	-10.1396
▁विद्यार्थियों	-10.1399
▁गोवा	-10.1406
िनी	-10.1408
ya	-10.1417
ाया	-10.1418
▁त्याग	-10.142
▁बिल्ली	-10.1437
▁छात्रा	-10.1443
▁विश्लेषण	-10.1444
▁दृश्य	-10.1447
▁डालने	-10.1447
▁संसाधन	-10.1447
▁हैरान	-10.1448
▁सेवाओं	-10.1454
▁सेल	-10.1466
▁कैसा	-10.1474
▁आतंकियों	-10.148
▁करवाने	-10.1484
▁ऑफ़	-10.1485
▁विस्तृत	-10.1492
▁उल्लेखनीय	-10.1492
▁पिछली	-10.1493
▁असल	-10.1496
-2	-10.1497
▁भारती	-10.1501
▁परिवहन	-10.1503
▁जताई	-10.1504
▁स्मृति	-10.1511
▁जाम	-10.1511
▁संबंधों	-10.1515
▁होली	-10.1517
▁आकर्षित	-10.1517
▁इंडस्ट्री	-10.1524
:-	-10.1534
▁सहमति	-10.1549
▁आकाश	-10.1561
▁आदिवासी	-10.1561
▁पुराना	-10.1568
▁खेले	-10.157
▁फंड	-10.157
▁मजा	-10.1572
▁उन्होने	-10.1576
▁जाओ	-10.1577
▁हक	-10.1589
▁दौरा	-10.1589
▁दुर्गा	-10.1592
▁प्रगति	-10.1594
▁तीसरी	-10.1595
गु	-10.1596
ां	-10.1601
▁सूरज	-10.1602
▁क्षेत्रीय	-10.1604
▁युवती	-10.1611
▁फैला	-10.1612
▁संचार	-10.1616
▁पशु	-10.1617
▁सकी	-10.1621
▁चावल	-10.1629
▁उन्हीं	-10.1631
▁परिचय	-10.1632
▁आचार्य	-10.1633
्त	-10.1648
▁पाल	-10.165
▁बसपा	-10.1651
मत	-10.1659
▁एफ	-10.1666
▁डाटा	-10.1677
▁The	-10.1678
▁रद्द	-10.1678
▁मनोरंजन	-10.1678
▁सुन्दर	-10.1686
▁नाटक	-10.1701
▁धारण	-10.1703
▁ऑटो	-10.1707
▁परि	-10.171
▁अपडेट	-10.171
▁स्वच्छ	-10.1713
-1	-10.1715
याँ	-10.1717
▁ग्राहक	-10.1718
▁फायदे	-10.1721
▁कमर	-10.1723
▁आत्म	-10.1726
▁टू	-10.1741
▁फ़ोन	-10.1743
▁रावत	-10.1751
▁सहयोगी	-10.1767
▁प्रतिनिधि	-10.177
्ट	-10.1771
▁चढ़	-10.1774
▁तट	-10.1774
▁दायर	-10.1774
▁रकम	-10.1779
दीप	-10.1782
▁विषयों	-10.1783
▁रवाना	-10.1786
19	-10.1791
▁बीमारियों	-10.1793
देश	-10.1798
▁लिखित	-10.1799
▁इंटर	-10.1799
▁छोड़ने	-10.181
▁अत्यंत	-10.181
▁संस्कृत	-10.1812
▁हि	-10.1819
पास	-10.1839
▁एकता	-10.184
▁समक्ष	-10.1844
▁सर्वाधिक	-10.1847
▁उपयोगी	-10.185
▁जरुरत	-10.185
▁एप	-10.1853
▁स्वभाव	-10.1854
▁मोर्चा	-10.1857
▁संतोष	-10.1857
▁सख्त	-10.1867
▁आमंत्रित	-10.1875
▁प्रदर्शित	-10.1875
▁कारणों	-10.1878
▁बांग्लादेश	-10.1879
▁अधीक्षक	-10.1879
▁अत	-10.1881
▁न्यायाधीश	-10.1884
लिया	-10.1897
डि	-10.1901
▁अभि	-10.191
▁RGB	-10.1915
▁किमी	-10.1924
▁36	-10.1926
us	-10.1926
▁घोटाले	-10.1937
▁छुट्टी	-10.1937
र्ड	-10.194
▁कायम	-10.1941
▁लड़ने	-10.1943
▁HSL	-10.1944
▁विद्युत	-10.1946
धा	-10.1948
▁मचा	-10.195
था	-10.1955
▁चाह	-10.1959
▁स्टेडियम	-10.1959
वत	-10.1959
▁चीज़	-10.1969
▁पेंशन	-10.197
▁ऑपरेशन	-10.197
▁शोषण	-10.197
वीर	-10.1974
▁गाना	-10.1977
▁दैर्ध्य	-10.1977
▁रुचि	-10.1986
▁यूजर्स	-10.1987
▁नाराज	-10.1992
▁कैबिनेट	-10.1992
▁nm	-10.1996
▁सदन	-10.1999
▁फ्रांस	-10.2006
▁दिखने	-10.2007
▁निकट	-10.2011
ेंद्र	-10.2013
▁हल्कापन	-10.2014
▁खारिज	-10.2021
▁मानी	-10.2022
▁राज्यसभा	-10.2023
▁Re	-10.2027
▁अनुरोध	-10.2028
▁संपादक	-10.2029
ेल	-10.203
▁गायब	-10.2031
भाव	-10.2033
्वा	-10.2034
कश्मीर	-10.2039
▁पु	-10.2047
▁प्रावधान	-10.2052
▁जनपद	-10.2055
कु	-10.2056
▁लगाना	-10.2056
म्ब	-10.2058
▁संतृप्ति	-10.2062
▁पीढ़ी	-10.2062
▁थ	-10.2067
▁चक्र	-10.2074
▁अस्तित्व	-10.2075
▁सरदार	-10.2075
▁विपक्षी	-10.2078
▁स्वर	-10.2079
▁झूठ	-10.2084
▁हैक्सा	-10.2084
ेगी	-10.2088
▁मिर्च	-10.2091
ढ	-10.2092
डेसीमल	-10.2095
▁जोखिम	-10.2095
▁धो	-10.2095
▁श्रद्धा	-10.2099
▁दिवसीय	-10.21
▁तारीफ	-10.2106
▁बेचने	-10.2109
▁पात्र	-10.2112
▁इस्तीफा	-10.2113
▁दाल	-10.2113
▁निर्मित	-10.2115
▁पाप	-10.2116
▁कार्यकाल	-10.2116
▁भट्ट	-10.2119
▁लड़का	-10.2124
▁सोनिया	-10.2128
झ	-10.2135
▁वर्णन	-10.2135
शि	-10.2141
▁यूरोप	-10.2146
▁मल	-10.215
▁चुन	-10.2152
▁प्रसन्न	-10.2158
▁आएंगे	-10.2158
▁पूछ	-10.216
▁फेंक	-10.216
▁शिवराज	-10.216
▁चा	-10.2168
▁जवानों	-10.217
ti	-10.2173
▁एंटी	-10.2174
▁वाराणसी	-10.2179
▁राजकुमार	-10.218
गर	-10.2182
▁बदला	-10.2182
▁सोना	-10.2185
▁पूर्वी	-10.2185
▁बैग	-10.2187
▁पोल	-10.2195
▁जानना	-10.2198
10	-10.221
▁स्वाद	-10.2213
▁सर्वोच्च	-10.2214
▁अभिनय	-10.2214
▁कोर्स	-10.2217
श्री	-10.2219
▁मुख	-10.2223
िम	-10.2224
▁पार्टनर	-10.2232
▁ऊ	-10.2246
▁2010	-10.2246
▁अभाव	-10.2247
▁आपस	-10.2252
▁आमिर	-10.2255
▁शतक	-10.2256
ंगी	-10.2256
24	-10.2259
▁मांगी	-10.2265
▁समझते	-10.2269
निक	-10.2269
▁न्यूनतम	-10.227
▁रुख	-10.228
मि	-10.228
▁बनाता	-10.2291
▁नो	-10.2294
▁प्रोफेसर	-10.2296
▁डेढ़	-10.2301
▁स्नान	-10.2304
▁नोएडा	-10.2308
▁ज्योतिष	-10.2308
▁डो	-10.231
दास	-10.2311
▁34	-10.2313
▁द्वार	-10.2317
▁स्पेशल	-10.2328
▁मरीजों	-10.2335
▁कामयाब	-10.2337
▁पूछे	-10.2341
▁रायपुर	-10.2342
▁पड़ने	-10.2344
▁ख़ास	-10.235
▁मच	-10.2364
▁जज	-10.2366
▁दिलाने	-10.2369
र्न	-10.2372
▁:-	-10.2373
▁कं	-10.2374
▁बढ़त	-10.2374
▁लक्षण	-10.2379
सि	-10.2382
▁पाना	-10.2382
▁गुना	-10.2386
िय	-10.2387
▁कब्जा	-10.2388
▁श्रीमती	-10.2388
▁श्रृंखला	-10.2391
▁दबा	-10.2393
▁चरित्र	-10.2395
▁ब्लैक	-10.2405
▁विवेक	-10.2414
▁प्लास्टिक	-10.2414
▁इंटरनेशनल	-10.2418
न्त	-10.242
▁कैमरे	-10.2426
▁मरीज	-10.2426
▁कार्यक्रमों	-10.2427
▁मोह	-10.2428
▁इनकार	-10.2429
▁फायदेमंद	-10.2433
▁सुर	-10.2433
वास	-10.2436
▁दत्त	-10.2437
▁पुन	-10.2445
▁संपन्न	-10.2449
▁कन्या	-10.2449
▁बोलते	-10.245
▁खेला	-10.2452
▁तीसरा	-10.2453
▁चौथे	-10.2467
▁अर	-10.2467
▁सहज	-10.2469
▁चीफ	-10.2472
▁इकाई	-10.2476
▁अनुकूल	-10.2478
▁निकला	-10.2485
▁सकेगा	-10.2489
ेन्द्र	-10.2491
▁बनना	-10.2493
▁आश्रम	-10.2493
▁थाम	-10.2494
▁खुला	-10.2494
▁आएगी	-10.2511
▁सुरेश	-10.2512
▁सिम	-10.2512
▁33	-10.2515
▁मुकेश	-10.2516
▁....	-10.2525
धर	-10.2527
▁अजीब	-10.2529
▁आगरा	-10.2533
▁निरीक्षण	-10.2537
▁होम	-10.254
▁सैकड़ों	-10.2541
▁शिखर	-10.2549
▁विधायकों	-10.2556
▁शुरूआत	-10.2567
▁समर्पित	-10.2568
▁बु	-10.258
ाबाद	-10.258
▁जितने	-10.2587
▁किंतु	-10.2595
▁पहुंचाने	-10.2597
▁महासचिव	-10.2603
▁गोद	-10.2604
▁बाबू	-10.2605
▁सच्चाई	-10.2605
▁बॉडी	-10.2615
▁पीड़िता	-10.2616
▁फीचर	-10.2619
▁पैरों	-10.262
▁जर्मनी	-10.2621
▁ब्याज	-10.2626
▁रावण	-10.2626
▁गांड	-10.2626
▁बनती	-10.2627
▁आरएसएस	-10.2628
▁कंट्रोल	-10.263
▁उत्सव	-10.2634
▁लाइट	-10.2636
िड	-10.2638
▁आतंकवादी	-10.2639
▁द्वितीय	-10.264
ro	-10.2644
▁ऑफर	-10.2647
▁सूत्र	-10.2647
▁मायावती	-10.265
▁ज़रूरी	-10.265
▁शाखा	-10.2657
▁अधिसूचना	-10.2657
▁सैन्य	-10.2663
▁चालू	-10.2664
▁प्रारंभ	-10.2667
ंडा	-10.2674
▁आरोपों	-10.2677
▁कोतवाली	-10.2677
▁उपन्यास	-10.2679
▁गत	-10.2684
ers	-10.2684
▁रत्न	-10.2685
▁रांची	-10.2689
▁hindi	-10.2691
▁हिस्सों	-10.2693
▁आजाद	-10.2696
▁शनि	-10.2697
▁व्यक्तित्व	-10.2697
न्स	-10.2699
िग	-10.2708
▁बाप	-10.2709
▁गौ	-10.271
▁गुस्सा	-10.2714
▁बढ़ोतरी	-10.2716
▁लीग	-10.2728
▁हंस	-10.2728
▁श्रम	-10.2731
▁गेम	-10.2731
▁निम्न	-10.2733
▁आइ	-10.2735
▁मिलना	-10.2735
▁उल्लंघन	-10.2736
▁छू	-10.2736
▁अभिषेक	-10.274
50	-10.2747
घर	-10.2751
पूर्वक	-10.2755
▁सिविल	-10.276
▁हिरासत	-10.2763
▁विशेषज्ञ	-10.2767
णा	-10.2769
▁पाती	-10.2771
▁हस्ताक्षर	-10.2771
▁जरुर	-10.2784
वो	-10.2794
▁जग	-10.2798
▁काव्य	-10.2798
▁विनोद	-10.2799
▁सुविधाओं	-10.2799
▁शुरुआती	-10.2808
तम	-10.281
▁निवास	-10.2812
▁4.	-10.2816
सू	-10.2816
▁फैंस	-10.2817
ic	-10.2818
रत	-10.2824
▁इंजीनियरिंग	-10.2826
▁शाहरुख	-10.2828
▁आईपीएल	-10.2829
▁इंदिरा	-10.2831
▁समझौता	-10.2835
▁Previous	-10.2836
पति	-10.2841
▁खासकर	-10.2848
डो	-10.285
▁UP	-10.285
▁जरुरी	-10.285
▁चोपड़ा	-10.2851
and	-10.2857
▁ठ	-10.2858
▁हड़ताल	-10.2859
▁दिक्कत	-10.2859
चि	-10.286
▁रिजर्व	-10.2862
▁अधिकतम	-10.2869
▁news	-10.2869
▁दीपावली	-10.2875
▁धूप	-10.2877
पल	-10.2879
▁हार्दिक	-10.2879
▁अरे	-10.2881
▁ख्याल	-10.2883
▁2008	-10.2886
▁घी	-10.2892
▁लड़कियां	-10.2895
▁निभा	-10.2902
▁चंद	-10.2908
ल्ड	-10.2931
▁आयुक्त	-10.2931
▁दिनेश	-10.2937
▁निगरानी	-10.2947
▁पोस्टर	-10.2949
▁बाहरी	-10.2951
▁रोशनी	-10.2956
▁रखती	-10.2956
हो	-10.2958
▁व्यापारियों	-10.2958
ृ	-10.2958
▁गहरा	-10.296
▁तत्कालीन	-10.2963
ir	-10.297
▁जीबी	-10.298
▁कहकर	-10.2983
40	-10.2988
▁तार	-10.2999
▁खतरे	-10.3
▁बिगड़	-10.3001
▁48	-10.3005
▁त्योहार	-10.3008
▁जाया	-10.3009
▁रिश्ता	-10.3011
▁स्प	-10.3014
▁टन	-10.3015
▁गहरी	-10.3021
▁फीस	-10.3023
▁जयंती	-10.3029
▁व्यस्त	-10.3031
▁क्रांति	-10.3032
▁अमीर	-10.3036
स्थ	-10.3042
▁राजनैतिक	-10.3044
▁रेडियो	-10.3045
जर	-10.3046
▁पाक	-10.3051
▁एसोसिएशन	-10.3052
▁इसलिये	-10.3052
▁प्रेमी	-10.3053
▁दलितों	-10.3056
▁फिट	-10.3058
▁गीता	-10.306
▁श्रीवास्तव	-10.3069
▁रनों	-10.3073
▁अपेक्षा	-10.3074
▁शीघ्र	-10.3076
▁सोचने	-10.3078
▁ब्रा	-10.3083
ियन	-10.3092
▁पंच	-10.3093
▁मम्मी	-10.3093
▁मैसेज	-10.3093
▁उपस्थिति	-10.3101
▁निरंतर	-10.3104
▁जानें	-10.3104
▁साढ़े	-10.3106
▁गुजर	-10.3107
▁संतान	-10.3108
न्द	-10.3112
▁पुणे	-10.3113
▁भोग	-10.3115
▁मिलेंगे	-10.312
लेट	-10.3123
▁जमानत	-10.3126
▁मेट्रो	-10.3129
▁गोरखपुर	-10.3132
▁article	-10.3134
मल	-10.3134
▁d	-10.3139
▁सू	-10.314
▁वर्षा	-10.3141
▁पीसी	-10.3144
▁इमरान	-10.3146
um	-10.3148
▁शहरी	-10.3151
lo	-10.3155
▁टेक्नोलॉजी	-10.3158
▁शब्दकोश	-10.3163
▁अस	-10.3172
▁युक्त	-10.3179
▁देखभाल	-10.3183
▁खैर	-10.3188
▁आग्रह	-10.3191
▁सिद्धांत	-10.3192
▁उच्चतम	-10.3193
▁बेच	-10.3194
▁रमेश	-10.3195
▁हिम्मत	-10.32
स्प	-10.32
▁मोड़	-10.3205
▁एक्टर	-10.3205
वाई	-10.3208
द्र	-10.321
▁प्रतिभा	-10.3211
▁निशान	-10.3211
▁कलेक्टर	-10.3212
▁बुद्धि	-10.3213
▁गर्व	-10.3222
▁राजपूत	-10.3228
▁स्वच्छता	-10.3231
▁अदा	-10.3235
▁बढ	-10.3242
▁जरा	-10.3244
▁नवीनतम	-10.3245
▁चूंकि	-10.3253
ment	-10.3255
▁फाइल	-10.3264
्ज	-10.3267
▁मित्रों	-10.3269
▁शहद	-10.3276
▁भेजने	-10.3277
▁वादा	-10.3283
▁ड्राइवर	-10.3283
▁कमा	-10.329
▁चु	-10.3291
कुल	-10.3293
▁दाग	-10.3294
▁देवता	-10.3296
▁औद्योगिक	-10.3312
▁अनुवाद	-10.3313
अपने	-10.3313
▁वार्षिक	-10.3315
▁जुड़	-10.3317
ष्ट	-10.3318
ानंद	-10.3319
▁दुःख	-10.3323
ve	-10.3333
▁विद्यार्थी	-10.3337
▁राजस्व	-10.3339
▁मरने	-10.3341
▁तुलसी	-10.3349
ल्स	-10.3352
▁सैनिक	-10.3364
▁मृतक	-10.3365
▁t	-10.337
▁प्रशासनिक	-10.3375
▁घूम	-10.3382
ut	-10.3387
▁मनाने	-10.339
▁अनुसूचित	-10.339
▁e	-10.3391
▁सम्पूर्ण	-10.3392
▁छा	-10.3394
▁संग	-10.3395
ion	-10.3397
▁सब्जी	-10.34
▁300	-10.341
▁नवीन	-10.341
▁इन्हीं	-10.3411
de	-10.3413
्व	-10.3425
ौर	-10.3433
▁खोलने	-10.3434
80	-10.3434
▁उर्फ	-10.3436
▁जिलाधिकारी	-10.3447
ni	-10.3448
▁बल्लेबाजी	-10.3449
▁सवालों	-10.3453
▁दिलचस्प	-10.3456
▁सोचते	-10.3458
▁2009	-10.3462
▁चौ	-10.3463
▁कालेज	-10.3464
▁गोपाल	-10.347
पे	-10.3471
▁करोड़ों	-10.3479
▁साइकिल	-10.3479
▁स्टोरी	-10.348
▁चन्द्र	-10.3481
▁देखता	-10.3485
▁पर्वत	-10.3485
▁देहरादून	-10.349
▁भला	-10.3492
▁बतौर	-10.3493
हीन	-10.3496
▁पब्लिक	-10.3497
sh	-10.35
co	-10.3507
▁दीवार	-10.3511
▁दृष्टिकोण	-10.3514
▁विधेयक	-10.3514
▁खिताब	-10.3523
▁परिस्थितियों	-10.3523
▁O	-10.3528
▁एड	-10.3532
▁Google	-10.3534
''	-10.3542
▁प्रोटीन	-10.3548
▁चंडीगढ़	-10.3548
▁एकमात्र	-10.3551
▁किस्म	-10.3556
id	-10.3564
▁गौतम	-10.357
▁फर्क	-10.359
▁स्रोत	-10.359
▁पाठ्यक्रम	-10.3593
▁ढेर	-10.3594
स्व	-10.3594
▁अफसर	-10.3597
▁सॉफ्टवेयर	-10.36
गल	-10.36
▁मिस	-10.3603
▁फुल	-10.3604
▁नकारात्मक	-10.3608
▁ऑ	-10.361
लू	-10.362
्न	-10.3622
):	-10.3625
▁साजिश	-10.363
▁तहसील	-10.3631
▁जोड़ने	-10.3632
▁रै	-10.3634
▁तन	-10.3636
▁मकसद	-10.3638
▁विडियो	-10.3639
▁भाषाओं	-10.3642
▁बालक	-10.3643
▁75	-10.3644
ोर	-10.3646
▁मानने	-10.3651
000	-10.3654
बि	-10.3654
▁उड़ान	-10.3656
रोक	-10.3656
hi	-10.3657
▁समझौते	-10.366
▁कस	-10.3661
▁शुक्ल	-10.3662
▁फैल	-10.3663
्री	-10.3665
▁लापरवाही	-10.3667
▁कमेंट	-10.3669
▁नारी	-10.3679
▁लिखते	-10.3681
▁दीदी	-10.3683
▁पार्टियों	-10.3684
as	-10.3685
▁ओपन	-10.3686
▁जोड़ा	-10.3686
▁बैठकर	-10.3687
▁हेड	-10.3687
▁सिर्फ़	-10.369
▁तत्वों	-10.369
▁भाग्य	-10.3691
▁अफगानिस्तान	-10.3692
▁बुला	-10.3702
▁अंश	-10.3705
▁आश्चर्य	-10.3708
लिंग	-10.3711
60	-10.3711
▁खींच	-10.3713
▁ईमेल	-10.3718
▁घाटी	-10.3722
स्क	-10.3722
▁लीजिए	-10.3725
▁ओम	-10.3728
▁प्रा	-10.373
▁उत्तरी	-10.3733
गांव	-10.3735
▁संवाददाता	-10.3736
▁पाँच	-10.3743
▁सदा	-10.3747
▁बेल	-10.3749
▁चलाया	-10.3752
▁दुष्कर्म	-10.3756
▁श्याम	-10.3776
▁बहुमत	-10.3782
▁हरि	-10.3783
▁दोस्ती	-10.3787
▁नाथ	-10.3787
▁गुप्त	-10.3789
▁उठाए	-10.3793
▁बटन	-10.3794
▁पवन	-10.3798
गत	-10.38
फल	-10.3805
▁रात्रि	-10.3808
णी	-10.3808
▁अज्ञात	-10.3808
िटी	-10.3811
▁कंपनियां	-10.3821
▁मजदूर	-10.3825
▁रोटी	-10.3826
▁नामांकन	-10.3827
▁एयरपोर्ट	-10.383
हू	-10.3837
▁गाँधी	-10.3848
▁साधन	-10.3857
▁त्यौहार	-10.3861
▁अकबर	-10.3861
▁हट	-10.3866
ol	-10.3867
▁सां	-10.3871
▁संस्थानों	-10.3879
्ल	-10.388
▁आसमान	-10.3887
▁घुस	-10.3896
18	-10.3898
▁देखो	-10.39
▁गुरू	-10.3903
फी	-10.3904
ak	-10.3906
▁जानिए	-10.3907
se	-10.3908
▁चोर	-10.3909
▁कटौती	-10.3909
▁आस्था	-10.3909
▁नशे	-10.391
▁ग्रीन	-10.3917
क्या	-10.3917
28	-10.3917
▁जागरण	-10.3919
ne	-10.3921
▁कीजिए	-10.3922
▁प्रकाशन	-10.3928
▁चुप	-10.393
▁चेयरमैन	-10.3932
▁टाइम्स	-10.3932
▁भटक	-10.3937
▁साक्षात्कार	-10.3938
▁यकीन	-10.394
▁कौर	-10.3942
▁साधना	-10.3945
▁5.	-10.3957
35	-10.3961
▁कोलिन्स	-10.3967
▁दोनो	-10.3973
▁पकड़ा	-10.3974
▁आशीर्वाद	-10.3978
▁नियंत्रित	-10.3989
▁फार्म	-10.3998
▁हुसैन	-10.3998
▁आन्दोलन	-10.4003
ha	-10.4006
▁लांच	-10.4009
▁जबरदस्त	-10.4011
▁ट्रैक	-10.4013
▁मिश्रण	-10.4015
यन	-10.4015
▁पारिवारिक	-10.4025
▁फैशन	-10.4026
ate	-10.4028
▁आंकड़ों	-10.403
र्थ	-10.4032
▁अव	-10.4034
▁जुट	-10.4038
▁जंग	-10.4039
▁आकर्षक	-10.4043
▁भव्य	-10.4047
▁भेजे	-10.4047
▁ब्यूरो	-10.4048
▁De	-10.4049
बो	-10.4051
▁ज़रूर	-10.4052
▁जीने	-10.4055
▁संसदीय	-10.4056
▁कवर	-10.4058
▁सीनियर	-10.4062
▁झटका	-10.4065
▁बढ़ी	-10.4067
▁कट्टर	-10.4071
लोक	-10.4071
▁मनीष	-10.4075
▁किरण	-10.4078
▁जीते	-10.4087
बिमारियों	-10.4088
▁150	-10.4089
यल	-10.4092
▁अमरीका	-10.4093
▁टाटा	-10.4093
▁दर्जन	-10.4098
▁हॉट	-10.4101
▁Ki	-10.4107
िव	-10.411
▁अंतरिक्ष	-10.4115
▁छुटकारा	-10.4115
▁महल	-10.4116
▁शोर	-10.4123
जब	-10.4129
▁महेंद्र	-10.413
▁भावनाओं	-10.413
▁डूब	-10.4131
▁स्टील	-10.4139
▁पदाधिकारी	-10.4139
▁आंकड़े	-10.4143
▁फांसी	-10.4143
▁राजद	-10.4144
▁फॉर	-10.4144
99	-10.4149
▁सामूहिक	-10.4152
▁be	-10.4152
▁मानें	-10.4155
▁चि	-10.4155
▁कर्मियों	-10.4158
ढ़	-10.4159
▁नाग	-10.4175
▁विचारधारा	-10.4175
▁माफी	-10.4176
▁बचे	-10.4179
ार्थ	-10.4186
▁देह	-10.4186
▁कलर	-10.4196
▁स्टॉक	-10.4198
▁घंटों	-10.4212
▁रेस	-10.4212
vi	-10.4212
▁आधे	-10.4214
हन	-10.4217
▁पं	-10.4218
23	-10.4219
▁डिवाइस	-10.422
▁1,	-10.4223
▁रोगों	-10.4226
▁नृत्य	-10.4232
▁उत्तम	-10.4235
▁फि	-10.4239
▁कीमतें	-10.424
me	-10.4242
▁हल्का	-10.4242
▁चू	-10.4244
्ता	-10.4245
जल	-10.4248
▁अहमदाबाद	-10.425
▁सम्बंधित	-10.4253
▁ब्रह्म	-10.4255
▁डेस्क	-10.4261
माल	-10.4262
▁स्तरीय	-10.4267
▁सैनिकों	-10.4274
▁हंगामा	-10.4275
▁2000	-10.4279
▁अत्यधिक	-10.428
▁ज्ञापन	-10.4284
▁कार्यरत	-10.4284
▁To	-10.4285
▁पश्चात	-10.4287
▁दरवाजे	-10.4289
▁पुनः	-10.429
▁शरीफ	-10.4295
▁बुद्ध	-10.4296
▁जला	-10.4299
▁ब्लड	-10.43
▁दिग्गज	-10.4302
▁एक्शन	-10.4305
▁पहाड़	-10.431
▁ट्रेलर	-10.4312
▁वार	-10.4313
▁खंड	-10.4315
▁क्र	-10.4316
▁बीस	-10.4319
▁लाइसेंस	-10.4321
▁तल	-10.4322
ul	-10.4322
▁जीवित	-10.4324
▁रोगी	-10.4324
to	-10.433
▁स्टाफ	-10.4331
▁सुभाष	-10.4331
▁रूपए	-10.4331
▁कमाल	-10.4333
▁मृत	-10.4334
ce	-10.4334
▁उतनी	-10.4344
▁उपयुक्त	-10.435
▁समझना	-10.4355
▁मेले	-10.4355
▁ट्रेनिंग	-10.4359
▁आर्य	-10.4359
▁शिवसेना	-10.4363
▁समा	-10.4364
▁Dainik	-10.4367
त्त	-10.4368
▁माला	-10.4368
गन	-10.4372
शील	-10.4372
▁यूं	-10.4374
▁नजदीक	-10.439
▁इच्छुक	-10.4391
▁बनर्जी	-10.4392
▁सऊदी	-10.4395
▁राजनाथ	-10.4396
▁कष्ट	-10.4398
ोल	-10.4398
▁अनुरूप	-10.4401
26	-10.4404
▁Bhaskar	-10.4405
▁p	-10.4405
▁डाले	-10.4406
र्ज	-10.4412
▁मास	-10.4415
▁शिशु	-10.4416
▁रिलायंस	-10.4418
▁मिलियन	-10.4419
▁सौंप	-10.4422
▁अफसरों	-10.4435
▁करण	-10.444
ात	-10.444
▁श्रीनगर	-10.4444
▁मंडी	-10.4454
▁पैमाने	-10.4461
ठा	-10.4465
▁काफ़ी	-10.4477
अप	-10.4481
▁रिश्तों	-10.4484
▁बरस	-10.4485
▁अधिकारों	-10.4489
अब	-10.4494
पो	-10.4503
▁माध्यमिक	-10.4504
लेकिन	-10.4504
▁मुहैया	-10.4512
▁by	-10.4517
गण	-10.4517
▁आलू	-10.4521
▁सिख	-10.4521
▁गरीबी	-10.4524
▁बेस्ट	-10.4532
▁बैठी	-10.4533
ोप	-10.4539
बद्ध	-10.4541
▁धातु	-10.4543
न्न	-10.4543
▁तुम्हारा	-10.4545
▁स्ट	-10.4549
मार	-10.4557
▁सेवाएं	-10.4558
▁क्रेडिट	-10.4559
▁शर्त	-10.4567
▁पृष्ठभूमि	-10.4569
▁देशभर	-10.457
्यू	-10.4574
▁चाल	-10.4574
▁साउथ	-10.4578
न्	-10.4583
▁लगाएं	-10.4584
▁सेक्सी	-10.4585
▁डॉक्टरों	-10.4588
▁बज	-10.4597
▁बैटरी	-10.4598
▁आरंभ	-10.46
▁बताए	-10.4601
▁सुनते	-10.4602
▁बोझ	-10.4602
▁अवतार	-10.4602
▁पारित	-10.4606
टन	-10.4606
्टी	-10.4612
▁उसमे	-10.4613
▁गंभीरता	-10.4621
▁नाक	-10.4624
▁जिसको	-10.4634
▁w	-10.4635
▁मुखर्जी	-10.4635
▁m	-10.4636
फर	-10.4637
▁आश्वासन	-10.4645
▁पुष्प	-10.4648
▁पहना	-10.4653
िता	-10.4654
▁गेहूं	-10.4654
ैया	-10.4656
▁बिक	-10.4658
▁वस्तुओं	-10.4659
▁सम्	-10.4662
ल्ला	-10.4664
▁लायक	-10.4665
▁काटने	-10.4674
▁लेवल	-10.4679
▁औरत	-10.4681
▁डीएम	-10.4688
▁थोड़े	-10.4688
भारत	-10.4693
▁सदी	-10.4694
▁अंडर	-10.47
बु	-10.47
ीन	-10.4702
▁कलाकारों	-10.4702
▁वेद	-10.4706
tra	-10.4713
▁आलोक	-10.4718
▁छाया	-10.4718
▁अखिल	-10.473
▁तालाब	-10.4737
▁कम्पनी	-10.4738
▁प्राथमिकता	-10.4738
▁सर्च	-10.4741
▁स्टाइल	-10.475
▁गिरा	-10.4754
▁बनते	-10.4757
▁पड़ोसी	-10.4763
▁चे	-10.4764
▁भौतिक	-10.4766
▁प्राण	-10.477
▁शास्त्र	-10.4772
▁हुईं	-10.4773
▁धवन	-10.478
▁साथियों	-10.4784
▁कॉम	-10.4787
▁निकाली	-10.4788
▁फंस	-10.4795
▁55	-10.4797
▁वैज्ञानिकों	-10.4799
▁चलेगा	-10.4804
▁घूमने	-10.4808
▁हिंदुस्तान	-10.4809
▁ठोस	-10.4814
▁मोटर	-10.4817
चंद	-10.4822
▁रफ्तार	-10.4828
▁स्पीड	-10.4832
▁तिल	-10.4832
▁राजकीय	-10.4833
▁दरवाजा	-10.4847
.2	-10.4849
▁श्रेष्ठ	-10.4852
नू	-10.4865
▁भिन्न	-10.4865
▁गेंदबाज	-10.4865
▁g	-10.4868
हरा	-10.4871
▁शौचालय	-10.4872
ue	-10.4872
्रा	-10.4873
▁1000	-10.488
▁दही	-10.4882
ेक	-10.4882
▁पलट	-10.4884
▁बाज़ार	-10.4886
▁दस्तावेज	-10.4888
▁त्रि	-10.4889
▁वारदात	-10.4892
▁बन्द	-10.4896
▁कुत्ते	-10.4896
▁ओलंपिक	-10.4896
▁पथ	-10.4897
▁ऊंचाई	-10.4898
▁अंकों	-10.49
▁भगत	-10.49
▁हीरो	-10.4907
▁पहन	-10.491
▁कच्चे	-10.4911
▁वॉलपेपर	-10.4911
▁हज़ार	-10.4911
▁बैक	-10.4912
▁संस्थाओं	-10.4913
▁नीतियों	-10.4915
▁सोनी	-10.4922
▁यूनियन	-10.4926
▁पांडेय	-10.4933
▁लंबा	-10.4936
▁युवकों	-10.4937
▁U	-10.4939
ेर	-10.4942
▁गरीबों	-10.4944
▁सभ्यता	-10.4944
टिंग	-10.4948
▁Sa	-10.4952
▁प्रकरण	-10.4953
▁ति	-10.4955
▁ज्योति	-10.4958
▁डाली	-10.4959
▁अन्ना	-10.4962
▁स्वीकृति	-10.4964
▁बुखार	-10.4965
▁रणवीर	-10.4965
ूं	-10.4969
▁कराना	-10.4979
ख़	-10.4986
▁लेट	-10.4987
पि	-10.4988
▁जॉन	-10.4991
▁अनुष्का	-10.4992
▁क्रिकेटर	-10.4993
मेल	-10.4996
▁समस्याएं	-10.4996
▁श्रीकृष्ण	-10.5006
वेल	-10.5006
▁निकली	-10.5007
▁शौक	-10.5012
▁मंत्रियों	-10.5013
▁मासूम	-10.5014
▁कठोर	-10.5014
▁जू	-10.5023
▁सिंचाई	-10.5024
▁महेश	-10.5026
▁मुझ	-10.5027
▁दिसम्बर	-10.5034
फ़ा	-10.5035
▁जागरूकता	-10.5037
▁मेला	-10.5039
▁रिटर्न	-10.5039
▁उपर	-10.5045
▁भूत	-10.5046
▁ड्यूटी	-10.5049
वै	-10.5054
▁बुनियादी	-10.5059
▁अग्नि	-10.5059
▁जानकर	-10.5059
▁मानो	-10.5062
ाइड	-10.5065
ियम	-10.5067
ज़ी	-10.5071
मर	-10.5083
▁बहाने	-10.5084
नर	-10.5085
▁पोर्टल	-10.5087
▁इन्होंने	-10.5089
▁मानक	-10.5091
▁हवाले	-10.5097
▁मुठभेड़	-10.5099
▁मुखिया	-10.5102
▁आपसी	-10.5102
▁Next	-10.5107
▁घट	-10.5108
▁निफ्टी	-10.5109
▁प्रोडक्ट	-10.5111
▁नर	-10.5112
▁पौधे	-10.5113
▁कब्जे	-10.5118
▁मनमोहन	-10.5125
▁सदर	-10.5132
▁प्रबंधक	-10.5132
▁कनेक्शन	-10.5134
▁स्नातक	-10.5144
▁कैद	-10.5144
▁टेबल	-10.5144
▁आकर्षण	-10.5149
▁ma	-10.5152
▁विभागों	-10.5152
▁शताब्दी	-10.5161
▁प्रांत	-10.5161
▁सूरत	-10.5165
▁शास्त्री	-10.5165
▁टेक	-10.5169
▁भेंट	-10.517
▁बढ़िया	-10.5175
▁बाय	-10.5176
योग	-10.5177
ag	-10.5178
▁संदिग्ध	-10.5179
क्टर	-10.518
▁ची	-10.5182
▁बदमाशों	-10.5183
▁पोषण	-10.5183
▁रोका	-10.5185
▁मैनेजर	-10.5187
▁इंजीनियर	-10.5191
▁प्री	-10.5193
▁कारोबारी	-10.5193
▁वैसा	-10.5196
धन	-10.5199
युक्त	-10.5199
बड़े	-10.52
han	-10.52
क्र	-10.5201
▁कबीर	-10.5202
▁पदार्थों	-10.5204
▁गढ़	-10.5205
▁Hindustan	-10.5209
▁लघु	-10.5214
▁देरी	-10.5215
▁जाएंगी	-10.5218
21	-10.5219
▁चोद	-10.5223
▁चुने	-10.5223
11	-10.5227
▁मैन	-10.5228
▁भूकंप	-10.5229
सार	-10.5229
▁कहें	-10.523
12	-10.5232
निया	-10.5232
▁नाबालिग	-10.5239
▁जाँच	-10.5243
▁स्वर्ग	-10.5244
▁चार्ज	-10.5251
▁आयात	-10.5252
ग्	-10.5252
दि	-10.5254
▁एसिड	-10.5256
▁उन्हे	-10.5259
▁बर्फ	-10.5262
जू	-10.5264
▁एहसास	-10.5265
▁यातायात	-10.5265
फिर	-10.5268
ुर	-10.5275
त्	-10.5279
▁कामना	-10.5279
▁मोर	-10.5279
ुद्दीन	-10.528
▁सरस्वती	-10.528
भी	-10.5287
▁ईंटरन	-10.529
▁झील	-10.5291
▁वचन	-10.5295
▁पेस्ट	-10.5296
ाइन	-10.53
▁स्किन	-10.5302
ून	-10.5305
22	-10.5306
ry	-10.5309
▁रहकर	-10.5311
▁मस्तिष्क	-10.5314
अर	-10.5318
▁कौ	-10.5319
▁यूनिट	-10.532
ोस	-10.5326
▁पृष्ठ	-10.5328
▁मछली	-10.5331
▁38	-10.5333
आज	-10.5333
द्ध	-10.5333
स्टर	-10.5334
▁ट्रेड	-10.5336
▁!!	-10.5341
29	-10.5349
▁लकड़ी	-10.5352
▁42	-10.5354
▁डालें	-10.5363
▁वस्त्र	-10.5371
▁वेस्टइंडीज	-10.5372
▁मज़ा	-10.5372
▁पोस्टमार्टम	-10.5377
▁दशा	-10.5377
▁कराए	-10.5379
▁निपटने	-10.5379
▁मस्त	-10.5389
▁काबू	-10.5391
▁स्थिर	-10.5393
▁निर्देशन	-10.5395
▁ka	-10.5395
▁कैसी	-10.5403
▁जिंदा	-10.5403
▁हलचल	-10.5403
▁नायक	-10.541
▁बर्तन	-10.5413
▁मासिक	-10.5416
▁हादसा	-10.5418
ांग	-10.5421
▁भास्कर	-10.5429
▁यूजर	-10.5429
▁सरकारों	-10.543
▁त्रिपाठी	-10.5434
▁प्रखंड	-10.5434
.5	-10.5436
▁मतदाता	-10.5437
ियर	-10.544
▁वै	-10.5441
ीज	-10.5443
▁सीखने	-10.5446
▁बुजुर्ग	-10.5448
▁यु	-10.5448
▁दायरे	-10.5449
▁लीला	-10.5449
▁ज्ञात	-10.5455
▁शर्म	-10.5461
▁पूंजी	-10.5471
▁जॉब	-10.5471
▁स्वाभाविक	-10.548
▁बहादुर	-10.5489
▁अभिव्यक्ति	-10.5496
▁गायक	-10.5497
▁बाग	-10.5498
▁तरीकों	-10.5502
55	-10.5506
▁सुविधाएं	-10.5509
कर्ता	-10.5512
▁महंगाई	-10.5515
▁n	-10.5515
27	-10.5516
▁डाक	-10.5517
▁खुली	-10.5519
▁सबूत	-10.552
▁अवगत	-10.5522
एक्स	-10.5528
▁झलक	-10.5528
▁गुलाब	-10.553
▁आधी	-10.5531
▁मनोहर	-10.5533
श्	-10.5534
▁संदेह	-10.5537
▁क्योकि	-10.5538
ूल	-10.5543
▁बरकरार	-10.5548
▁रणबीर	-10.5548
▁जम	-10.555
▁चलिए	-10.5552
हल	-10.5558
▁बंधन	-10.5559
▁घड़ी	-10.556
ॉल	-10.5564
▁अपराधी	-10.5565
▁अधीन	-10.5568
▁करेंगी	-10.557
▁नारियल	-10.557
▁37	-10.5572
ट्स	-10.5575
▁मं	-10.5577
▁संहिता	-10.5577
▁कामकाज	-10.5577
द्द	-10.5578
▁65	-10.5585
▁प्रयासों	-10.5587
ia	-10.559
▁फुट	-10.559
▁जूनियर	-10.5591
▁सिलसिला	-10.5595
▁गर्भवती	-10.5595
वानी	-10.5597
मय	-10.5601
▁गिरने	-10.5607
▁कान	-10.5609
वासी	-10.5611
▁टे	-10.5617
▁रोज़	-10.5618
▁नतीजे	-10.5621
▁हॉल	-10.5622
▁खोला	-10.5624
▁प्राधिकरण	-10.5626
▁मन्दिर	-10.5626
▁दर्जा	-10.563
▁बढ़ाया	-10.563
▁सार	-10.5631
▁महाविद्यालय	-10.5632
▁मजाक	-10.5633
▁व्	-10.5635
▁रेट	-10.5646
▁आंध्र	-10.5653
ज्ज	-10.5653
ंगे	-10.5655
▁मेरठ	-10.5658
▁आइये	-10.566
16	-10.5665
ल्ल	-10.5665
▁दीप	-10.5666
▁दिला	-10.5667
चल	-10.5668
▁इंस्टाग्राम	-10.5669
▁स्थायी	-10.5669
▁अपराधियों	-10.5671
▁समर्थकों	-10.5672
▁थक	-10.5673
▁उपभोक्ता	-10.5682
▁इन्	-10.569
▁जेब	-10.5691
up	-10.5697
▁भैया	-10.5697
▁Ra	-10.57
▁प्रत्यक्ष	-10.5701
ब्र	-10.5706
▁अवार्ड	-10.5706
धर्म	-10.5707
▁दोहरा	-10.5709
▁जनसंख्या	-10.5711
▁फूड	-10.5712
▁जोधपुर	-10.5715
▁सपोर्ट	-10.5717
.....	-10.5718
▁गणित	-10.572
▁समर्थक	-10.5723
▁क़	-10.5728
▁हिट	-10.5732
▁अमल	-10.5737
▁टीचर	-10.5743
ल्ट	-10.5755
▁दर्शक	-10.5755
▁रिकार्ड	-10.5759
▁डॉट	-10.5764
▁अपर	-10.577
▁सास	-10.5771
▁पांडे	-10.5773
▁हमसे	-10.5774
बू	-10.5781
▁बैंकिंग	-10.5782
▁संपूर्ण	-10.5783
30	-10.5787
▁वंचित	-10.5791
▁हरे	-10.5792
di	-10.5793
▁बताना	-10.5794
▁सहमत	-10.5795
▁विस्फोट	-10.5797
▁मीटिंग	-10.5798
▁बाधा	-10.5798
▁भारतीयों	-10.5798
लैंड	-10.5802
▁सलाहकार	-10.5803
सम	-10.5807
▁२०१	-10.5811
टू	-10.5812
▁बिन	-10.5812
▁पहाड़ी	-10.582
लिन	-10.5823
▁सीन	-10.5824
▁प्रवाह	-10.5827
▁व्याख्या	-10.5828
▁2007	-10.5833
▁घटनाएं	-10.5834
▁तुमने	-10.5844
▁ज़ोर	-10.5846
▁संक्रमण	-10.5855
▁विशेषज्ञों	-10.5856
▁चढ़ा	-10.5857
▁धरना	-10.5862
▁जिम	-10.5865
▁उर्दू	-10.5865
▁उत्पीड़न	-10.5871
▁गोयल	-10.5872
▁बहू	-10.5874
▁नाकाम	-10.5879
▁सीता	-10.5883
▁प्रतिष्ठित	-10.5888
-3	-10.5888
▁आपदा	-10.5889
▁फुटबॉल	-10.5898
▁संरचना	-10.5907
ge	-10.5908
▁जटिल	-10.5915
▁अनाज	-10.5916
▁मजबूती	-10.5925
प्प	-10.5926
▁No	-10.5928
▁सौंदर्य	-10.5931
दू	-10.5931
▁जानवरों	-10.5949
जैसे	-10.5956
▁चांदी	-10.5956
▁64	-10.5962
▁बचत	-10.5964
गार	-10.5965
▁एटीएम	-10.5975
▁ग़ज़ल	-10.598
▁प्रबंध	-10.5981
▁se	-10.5984
▁संभाल	-10.5985
▁नतीजा	-10.5985
ैं	-10.5985
▁महोत्सव	-10.5986
▁समीप	-10.5986
-10	-10.5987
▁Times	-10.5988
39	-10.5988
▁शुक्ला	-10.5988
▁ब्रेक	-10.599
▁बिस्तर	-10.5993
▁हिल	-10.6004
▁जाएँ	-10.6005
▁पैक	-10.6008
▁गठित	-10.6009
▁मूल्यों	-10.6014
▁खिला	-10.6017
▁अपमान	-10.6017
▁पैन	-10.6017
्क	-10.6017
▁आंख	-10.6023
▁निर्	-10.6023
नाम	-10.6026
▁डेट	-10.6026
▁उदय	-10.6028
▁आईं	-10.6029
▁अन्यथा	-10.6032
िर	-10.6036
ौली	-10.6037
ाब	-10.6041
▁मू	-10.6042
ist	-10.6045
▁अहसास	-10.6051
▁आतंकवादियों	-10.6052
▁Se	-10.6055
▁पंकज	-10.6056
▁छीन	-10.6059
▁शोक	-10.606
▁आईटी	-10.6061
▁क्रोध	-10.6062
▁मानता	-10.6066
ठी	-10.6079
▁पंजीकरण	-10.6079
▁चर	-10.6084
▁पंप	-10.6087
▁अपहरण	-10.609
▁यूरोपीय	-10.6092
▁सुशील	-10.6093
▁राग	-10.6093
▁पेशकश	-10.6095
▁उठाकर	-10.61
▁सिखा	-10.61
ंब	-10.6102
▁चेतना	-10.6104
धार	-10.6108
▁जानवर	-10.6108
.1	-10.6113
▁कुंडली	-10.6115
▁खेलते	-10.6116
▁रुपया	-10.6117
▁कैलाश	-10.6117
im	-10.6127
▁ओडिशा	-10.6128
ॉन	-10.613
▁सुनी	-10.6131
▁सेंसर	-10.6131
▁संस्थापक	-10.6133
दु	-10.6134
त्मक	-10.6136
▁चपेट	-10.614
▁स्कीम	-10.6145
षा	-10.6148
▁गुर	-10.6149
▁निर्यात	-10.6151
ee	-10.6154
▁लीक	-10.6155
▁ज़मीन	-10.6156
डिया	-10.6158
रस	-10.6159
▁टिक	-10.6163
▁भक्तों	-10.6164
समय	-10.6167
▁ढूंढ	-10.6168
▁व्यावसायिक	-10.6173
▁तूफान	-10.6173
▁फीट	-10.6178
▁माइक्रो	-10.6178
▁कमाने	-10.6185
▁ताल	-10.6186
▁सतह	-10.6186
▁सबका	-10.6193
▁गेंदों	-10.6198
▁बीत	-10.62
▁नीरज	-10.62
▁हल्दी	-10.6201
nd	-10.6203
▁मिसाइल	-10.6206
▁रोशन	-10.6213
▁जोड़े	-10.6214
▁जातक	-10.6216
▁पढ	-10.6219
.'	-10.6222
▁72	-10.6231
▁किराए	-10.6234
▁अपलोड	-10.624
36	-10.624
▁पहनने	-10.6248
▁बैठने	-10.6251
▁किराया	-10.6257
▁पहने	-10.6261
he	-10.6268
▁नम्बर	-10.6272
▁मद्देनजर	-10.6273
धि	-10.6278
▁हानि	-10.628
▁ससुराल	-10.628
▁परिचित	-10.6285
▁शक्तिशाली	-10.6285
▁यज्ञ	-10.6285
▁निम्नलिखित	-10.629
▁अन्तर्गत	-10.629
▁ki	-10.6292
▁लम्बे	-10.6296
▁छठ	-10.6298
▁स्वराज	-10.6301
▁रोचक	-10.6302
हु	-10.6303
▁प्रवृत्ति	-10.6306
▁वीं	-10.6307
▁प्रतिनिधित्व	-10.6307
▁संदीप	-10.6309
14	-10.6311
ंगा	-10.6311
▁ऑल	-10.6315
रिक	-10.6318
▁हिला	-10.6328
▁श्रीराम	-10.6329
▁जहाज	-10.633
ाइ	-10.6334
▁आयकर	-10.6337
▁ज़िन्दगी	-10.6341
▁प्रशंसा	-10.6341
▁एंट्री	-10.6341
▁भार	-10.6346
▁अर्पित	-10.6346
▁राणा	-10.6347
▁लाश	-10.6348
▁फेल	-10.6351
▁गुस्से	-10.6352
▁जाल	-10.6356
▁आखिरकार	-10.6361
कू	-10.6363
▁चाहें	-10.6363
▁भागीदारी	-10.6372
▁पत्ते	-10.6375
▁दंड	-10.6381
ज्ञ	-10.6382
▁39	-10.6387
▁पीड़ा	-10.6388
▁परम्परा	-10.6389
▁आयुर्वेद	-10.6389
34	-10.6391
▁सटीक	-10.6392
13	-10.6397
▁साइड	-10.6398
र्म	-10.6398
▁सोनम	-10.6399
▁जब्त	-10.6403
▁गली	-10.6405
▁बताती	-10.6406
कोट	-10.6408
io	-10.6411
▁लिहाज	-10.6413
▁सर्वेक्षण	-10.6415
▁एससी	-10.6415
▁ग्लोबल	-10.6415
▁प्रसारण	-10.6416
▁कन	-10.6417
▁बेसिक	-10.6424
▁इनसे	-10.6431
▁संवेदनशील	-10.6434
▁निचे	-10.644
▁दफ्तर	-10.6442
▁राधा	-10.6446
▁कार्तिक	-10.6446
▁बलों	-10.645
▁काशी	-10.6451
▁पढ़ते	-10.6452
▁अभ्यर्थियों	-10.6454
न्ड	-10.6459
ूँ	-10.646
▁डाक्टर	-10.646
▁प्लांट	-10.6466
▁रामदेव	-10.6466
▁देनी	-10.6467
▁निक	-10.6469
ाक	-10.6469
▁मंदिरों	-10.6472
▁बोतल	-10.6474
▁दादा	-10.6474
▁इशारा	-10.6477
▁नींबू	-10.6477
▁लीजिये	-10.6477
ac	-10.6483
▁ख़त्म	-10.6483
▁पकड़े	-10.6486
▁बौद्ध	-10.6488
▁Now	-10.6491
▁मेडल	-10.6492
▁रिकॉर्डर	-10.6493
▁दीजिए	-10.6495
▁आपत्ति	-10.6496
▁ट्रैफिक	-10.65
▁(19	-10.6503
▁घबरा	-10.6506
▁आरती	-10.6508
▁गुड	-10.6509
▁तरफ़	-10.651
ंप	-10.6514
▁कक्ष	-10.6517
▁पारंपरिक	-10.6517
नों	-10.652
▁ऑन	-10.6521
▁लड़कों	-10.6525
▁इंकार	-10.6525
-2018	-10.6525
▁गर्भ	-10.6529
▁पीट	-10.653
▁नक्सलियों	-10.6531
▁प्याज	-10.6531
सल	-10.6531
▁खु	-10.654
▁हाथी	-10.6543
▁तोड़ने	-10.6549
ci	-10.6549
▁अंबानी	-10.6552
▁शिक्षण	-10.6552
लों	-10.6552
▁पैसों	-10.6553
▁ठंडा	-10.6554
▁ड्रेस	-10.6554
▁तेलंगाना	-10.6558
ुक	-10.6561
ीं	-10.6567
▁पहुंचकर	-10.6567
▁दायित्व	-10.6569
▁तर	-10.6569
▁दुखी	-10.6573
▁धूम	-10.6575
▁चर्च	-10.6579
र्ग	-10.6581
04	-10.6583
▁श्रीदेवी	-10.6583
▁एलईडी	-10.6587
▁मारकर	-10.6587
▁चाचा	-10.6588
▁दुसरे	-10.6592
▁कथन	-10.6593
▁व्यायाम	-10.6598
▁वाकई	-10.6601
गें	-10.6608
▁कृष्णा	-10.6608
▁विद्यालयों	-10.6609
▁कुर	-10.661
▁प्रचलित	-10.661
▁सै	-10.6613
▁कागज	-10.6615
▁वरना	-10.6616
▁आंतरिक	-10.6623
▁धान	-10.6623
लु	-10.6633
▁तस्वीरों	-10.6633
ity	-10.6635
▁कुर्सी	-10.6639
65	-10.6641
▁पाये	-10.6642
▁सेंट्रल	-10.6645
▁कहानियों	-10.6645
▁पाठकों	-10.6663
▁पालिका	-10.6665
15	-10.6665
▁आध्यात्मिक	-10.6666
▁44	-10.6666
▁साइंस	-10.6674
▁शाहिद	-10.6675
▁लै	-10.6676
▁जागरूक	-10.6676
▁छिपा	-10.6678
▁मैनेजमेंट	-10.668
▁शरद	-10.6685
ap	-10.6685
▁आह्वान	-10.6686
▁डोनाल्ड	-10.6686
▁जिनसे	-10.669
▁प्रस्तुति	-10.6693
▁यंत्र	-10.6697
▁गुल	-10.6702
ay	-10.6702
▁.....	-10.6703
▁साड़ी	-10.6705
▁आलम	-10.6712
▁वर	-10.6719
▁आंटी	-10.672
ho	-10.6721
▁प्रस्तावित	-10.6721
▁प्लेट	-10.6725
▁2006	-10.6726
▁उजागर	-10.6727
▁पहलुओं	-10.6727
▁लिखना	-10.6731
मिल	-10.6733
▁बरसात	-10.6734
▁तीर्थ	-10.6738
▁धोखा	-10.6739
▁परियोजनाओं	-10.674
▁केंद्रित	-10.6744
▁बगैर	-10.675
▁me	-10.6751
▁लू	-10.6754
▁परिजन	-10.6755
▁टाइप	-10.6757
▁तेरे	-10.6758
▁शुक्र	-10.6758
▁माया	-10.676
▁अन्त	-10.6761
▁पीछा	-10.6764
▁बारह	-10.6764
▁माल्या	-10.6764
▁उठाते	-10.6765
▁चै	-10.6766
▁ग्वालियर	-10.6768
▁दिखे	-10.6769
▁स्क	-10.677
▁जातियों	-10.677
▁Description	-10.6774
▁कनाडा	-10.6774
▁हल्के	-10.6774
▁खां	-10.6775
▁राजेंद्र	-10.6777
▁आभार	-10.678
▁उपकरणों	-10.6785
▁आशीष	-10.6785
▁जूझ	-10.6786
▁हिमालय	-10.6798
▁बेस	-10.6799
▁प्रारम्भ	-10.6801
▁गणना	-10.6801
▁जमाने	-10.6804
▁साहस	-10.6804
▁उठे	-10.6805
32	-10.6805
खी	-10.6805
भाई	-10.6809
ish	-10.681
▁मद	-10.681
ru	-10.6815
▁फेस	-10.6815
▁रहस्य	-10.6816
▁उत्कृष्ट	-10.6817
▁तिमाही	-10.6821
▁गुणों	-10.6823
▁वास्तु	-10.6827
▁बर्बाद	-10.6827
▁51	-10.6828
▁हसन	-10.6831
▁अब्दुल	-10.6833
▁तले	-10.6833
▁साधु	-10.6834
▁400	-10.6836
age	-10.6838
▁जानती	-10.6838
▁हेल्थ	-10.6839
▁उपचुनाव	-10.6839
▁बताता	-10.6843
▁बाजारों	-10.6843
वाह	-10.6844
▁दरबार	-10.6845
▁नवाज	-10.6846
छा	-10.6847
▁शैक्षिक	-10.6851
▁चलो	-10.6855
ang	-10.686
▁लाई	-10.686
▁रिक्त	-10.6861
▁शु	-10.6864
▁जाग	-10.6866
▁पसंदीदा	-10.6869
जु	-10.6874
▁with	-10.6875
ll	-10.6879
▁एग्जाम	-10.6881
▁सुपरस्टार	-10.6881
▁रूट	-10.6884
▁सम्पन्न	-10.6887
▁फूलों	-10.6887
▁मथुरा	-10.6892
▁प्रतीत	-10.6893
ab	-10.6898
▁लिखकर	-10.691
पट	-10.691
▁आत्मविश्वास	-10.691
38	-10.6912
▁जुर्माना	-10.6915
▁गे	-10.6917
▁मोड	-10.6919
▁पायलट	-10.6925
▁पिटाई	-10.6929
▁कपड़ा	-10.6933
▁मांगने	-10.6934
▁मधु	-10.6938
▁परिस्थिति	-10.6939
धारी	-10.6939
ीस	-10.694
यु	-10.6946
▁पदाधिकारियों	-10.6946
▁भेदभाव	-10.6947
▁पड़ेगी	-10.6954
▁प्रदीप	-10.6955
कम	-10.6957
कुमार	-10.6958
▁अध्यापक	-10.6958
यान	-10.696
▁वाह	-10.6964
बाद	-10.6965
▁समृद्ध	-10.6969
▁अंग्रेजों	-10.6972
▁बीसीसीआई	-10.6975
▁डील	-10.6976
▁टा	-10.6978
▁Post	-10.6978
▁मानवीय	-10.6979
▁बादल	-10.6979
▁संभावित	-10.6982
ent	-10.6983
.30	-10.6985
▁श्रेय	-10.6986
▁स्नेह	-10.6989
▁www	-10.699
▁जादू	-10.699
▁भेद	-10.6992
ियत	-10.6992
▁पक्षों	-10.6993
▁प्ले	-10.7
▁मील	-10.7005
▁छोड़ा	-10.7006
वासियों	-10.7007
▁कुलदीप	-10.701
▁इजाजत	-10.7019
▁नकली	-10.7021
▁सहारे	-10.7026
▁हॉकी	-10.7026
▁कविताओं	-10.7026
वार्ता	-10.7027
▁वृक्ष	-10.703
▁वैदिक	-10.7031
▁चूर्ण	-10.7031
▁द्वीप	-10.7033
▁ch	-10.7035
▁ट्रस्ट	-10.7038
▁विक्रम	-10.7039
▁करवाई	-10.704
▁तकरीबन	-10.7043
▁मानसून	-10.7043
▁उपलब्धि	-10.7044
ine	-10.7053
▁बनाएं	-10.7053
▁चरम	-10.7055
▁01	-10.7061
▁दुश्मन	-10.7062
▁जताया	-10.7063
▁k	-10.7064
▁बड़	-10.7066
ka	-10.7076
धी	-10.7079
▁असफल	-10.708
न्ह	-10.7081
▁अह	-10.7081
▁सनी	-10.7085
ke	-10.7087
▁सीरियल	-10.7087
▁भजन	-10.7091
▁निर्माताओं	-10.7092
37	-10.7097
▁बनवा	-10.7098
▁जोरदार	-10.7102
▁सावधानी	-10.7109
▁जूते	-10.711
▁नारे	-10.7111
our	-10.7111
▁मात	-10.7118
▁वंश	-10.712
कला	-10.7121
▁मार्क	-10.7122
▁ब्लाक	-10.7122
▁पैदल	-10.7122
▁अत्याचार	-10.7122
▁हरकत	-10.7122
▁गहराई	-10.7123
ारी	-10.7133
▁ज़िंदगी	-10.7134
man	-10.7136
▁शत्रु	-10.7136
▁खूबसूरती	-10.7144
▁पैनल	-10.7145
खे	-10.7146
▁डबल	-10.7148
व्य	-10.7152
▁लु	-10.7155
▁महाभारत	-10.7156
ष्ठ	-10.7167
▁हॉस्पिटल	-10.7171
▁महादेव	-10.7177
▁फ्लैट	-10.7177
▁मधुर	-10.7179
▁इंद्र	-10.7183
▁टिप्स	-10.7185
▁धाम	-10.7186
▁निंदा	-10.7187
▁ध्वनि	-10.7188
▁अंदाजा	-10.7189
▁एक्सचेंज	-10.7189
▁मजदूरों	-10.7192
▁पर्दे	-10.7194
▁जोकि	-10.7195
▁सदैव	-10.7196
▁उड़ा	-10.7196
▁दिखता	-10.7197
▁सिफारिश	-10.7199
▁बदमाश	-10.7202
वालों	-10.7205
▁झेल	-10.7207
तन	-10.7215
▁अर्थात्	-10.7215
डब्ल्यू	-10.7218
▁सुषमा	-10.722
mo	-10.7222
▁फायरिंग	-10.7224
▁बनाती	-10.7226
▁शिमला	-10.7227
ग्न	-10.7227
िज	-10.7227
▁बनेगा	-10.7233
▁निकाय	-10.7235
▁कार्यकारी	-10.7235
▁सृजन	-10.7238
रन	-10.7239
ैन	-10.7242
ts	-10.7244
▁छेड़छाड़	-10.7245
▁विभाजन	-10.7245
har	-10.7246
▁at	-10.7249
▁अल्पसंख्यक	-10.7252
ance	-10.7252
ant	-10.7253
▁43	-10.7254
▁चरणों	-10.7255
▁राजे	-10.7258
▁गेंदबाजी	-10.7269
▁कॉ	-10.727
▁क्षण	-10.7275
▁ऊंची	-10.7276
क्रम	-10.7278
▁शेख	-10.7286
▁संयोजक	-10.7288
▁फायर	-10.7291
वती	-10.7294
▁ऑप्शन	-10.7295
▁ढाई	-10.7299
▁कीजिये	-10.7299
▁समापन	-10.7303
45	-10.7308
▁गहरे	-10.7314
लन	-10.7314
बीर	-10.7315
▁बताये	-10.7315
▁सीधी	-10.7317
70	-10.7319
▁उमर	-10.7323
▁धूल	-10.7324
फे	-10.7328
▁अकादमी	-10.7332
▁ख़ुद	-10.7335
▁टुकड़े	-10.7338
▁यमुना	-10.7342
▁सिलसिले	-10.7344
आइ	-10.7349
▁संजीव	-10.7349
▁नक्षत्र	-10.7351
▁तेजस्वी	-10.7351
▁धारणा	-10.7355
▁बहरहाल	-10.7357
▁कांड	-10.7362
▁प्रोत्साहित	-10.7369
तीन	-10.7371
▁बुरे	-10.7372
▁बै	-10.7372
▁रहिए	-10.7373
▁ईसाई	-10.7374
▁सप्लाई	-10.7376
▁छात्राओं	-10.7376
▁महंगा	-10.7378
▁पागल	-10.7379
▁शरण	-10.738
टेक	-10.7381
▁अमृत	-10.7381
है	-10.7382
▁बुध	-10.7384
▁रूसी	-10.7392
▁सीईओ	-10.7395
▁47	-10.7395
शक्ति	-10.7396
▁लेन	-10.7396
▁फ़िर	-10.7399
▁निदेशालय	-10.7401
जि	-10.7401
▁मलिक	-10.7413
▁मौजूदगी	-10.7414
▁PM	-10.7414
▁क्यू	-10.7415
▁सस्ते	-10.742
▁मालिश	-10.7421
▁मायने	-10.743
▁प्रारूप	-10.7433
▁माँग	-10.7433
▁उठता	-10.7433
▁लक्ष्मण	-10.7435
▁लाना	-10.7436
▁सृष्टि	-10.7439
▁गीतों	-10.7442
भाग	-10.7443
33	-10.7445
▁टीमों	-10.7446
▁रमन	-10.7447
▁पद्धति	-10.7448
▁घायलों	-10.745
▁सालाना	-10.7452
Read	-10.7456
▁राफेल	-10.7457
▁प्रतिष्ठा	-10.7458
च्छ	-10.7459
▁हकीकत	-10.7464
▁सैफ	-10.7476
पु	-10.7479
▁शीर्षक	-10.748
▁पार्ट	-10.7483
पीएस	-10.7484
▁राशन	-10.7485
▁उपहार	-10.7486
▁उभर	-10.7496
▁गार्ड	-10.7497
तक	-10.7497
▁गंवा	-10.7499
▁मौ	-10.7501
▁ब्लू	-10.7502
▁मुम्बई	-10.7502
▁पहलू	-10.7502
घाट	-10.7507
▁परामर्श	-10.7508
मू	-10.7511
▁उपाध्याय	-10.7515
▁कामयाबी	-10.7516
▁पेशेवर	-10.7517
▁बनारस	-10.7517
▁खेली	-10.7518
▁बीवी	-10.7522
▁बदलते	-10.7529
▁इवेंट	-10.7534
▁विवादित	-10.7535
▁दुकानों	-10.7536
ga	-10.7539
▁कम्प्यूटर	-10.7542
▁जोश	-10.7544
तू	-10.7544
▁रैम	-10.7545
▁मनी	-10.7548
▁मूवी	-10.7548
ंगल	-10.7548
▁ख़ुशी	-10.7549
▁इनको	-10.755
▁विरासत	-10.7553
▁प्लस	-10.7553
▁मूल्यांकन	-10.7553
▁अध	-10.7555
ाम	-10.7556
▁पहुंचाया	-10.7556
▁लिहाजा	-10.7558
▁वाई	-10.7561
▁ईद	-10.757
▁कैंप	-10.757
ऐ	-10.7571
▁Hai	-10.7571
▁एफआईआर	-10.7572
हरी	-10.7573
▁फ्रंट	-10.7579
▁इमाम	-10.7585
▁फीसद	-10.7585
no	-10.7586
▁करीबी	-10.7587
▁बोर	-10.7589
▁कामों	-10.7591
▁श्रद्धांजलि	-10.7591
▁संतुलन	-10.7597
pe	-10.76
▁एरिया	-10.7601
▁सांप	-10.7602
▁प्रारंभिक	-10.7608
▁मुह	-10.7609
▁पीस	-10.761
▁वाक्य	-10.7613
▁आसन	-10.7614
▁चौकी	-10.7615
▁गहन	-10.7615
▁52	-10.7616
▁For	-10.7622
02	-10.7625
्वे	-10.7627
▁पकड़ने	-10.7628
▁अकेला	-10.7629
▁लेटेस्ट	-10.7632
▁मामूली	-10.7636
▁सस्ता	-10.7638
▁बैनर	-10.7639
कॉम	-10.7642
▁आंखें	-10.7642
07	-10.7645
▁नाराजगी	-10.7645
▁रिलीज़	-10.7646
▁रिश्तेदार	-10.7648
▁सिपाही	-10.7649
▁१०	-10.7649
▁हवाला	-10.7649
▁लहर	-10.7651
▁प्यास	-10.7653
▁46	-10.7653
हट	-10.7654
ोन	-10.7655
▁मांगा	-10.7656
▁कॉपी	-10.7657
▁कुमारी	-10.7659
si	-10.766
▁आनन्द	-10.7663
▁Pro	-10.7663
▁रंगों	-10.7672
▁साझेदारी	-10.7673
▁नहर	-10.7673
▁इंतजाम	-10.7675
र्व	-10.7677
▁हिन्दुस्तान	-10.7679
▁नदियों	-10.7681
▁संसाधनों	-10.7687
▁डिस्प्ले	-10.7694
▁टि	-10.7696
▁सैमसंग	-10.7707
▁Mi	-10.7709
▁वरुण	-10.771
▁99	-10.7718
▁शेयरों	-10.7722
▁बू	-10.7722
▁केंद्रों	-10.7724
▁ट्रेडिंग	-10.7725
त्य	-10.7726
▁इक	-10.7726
▁तप	-10.7727
▁प्रिंट	-10.7729
▁बांट	-10.773
▁41	-10.7738
ill	-10.7739
▁प्रमोशन	-10.7739
▁दुबई	-10.7739
▁फेर	-10.774
▁post	-10.7742
▁किस्मत	-10.7746
▁आंकड़ा	-10.7746
▁मांस	-10.7752
▁पाकर	-10.7757
▁पुत्री	-10.776
▁कपड़ों	-10.7761
▁फो	-10.7762
▁सूचित	-10.7762
▁तकलीफ	-10.7763
▁चाट	-10.7765
▁पू	-10.7766
▁ब्र	-10.7767
▁चर्चित	-10.7769
▁सर्दी	-10.7772
▁आफ	-10.7772
▁फाउंडेशन	-10.7779
ाकर	-10.7782
▁आर्मी	-10.7788
▁सौंपा	-10.7795
▁मेहता	-10.7796
▁स्टूडेंट्स	-10.7797
▁संतुष्ट	-10.7799
▁रजत	-10.781
▁अमरीकी	-10.7811
▁राखी	-10.7812
▁पुर	-10.7813
▁पूछने	-10.7818
▁कुशल	-10.7819
▁पूर्णिमा	-10.7819
▁दावे	-10.7822
▁ईमानदारी	-10.7823
▁जिलाध्यक्ष	-10.7825
यत	-10.7831
मिन	-10.7834
▁बगल	-10.7837
▁भेजी	-10.7837
▁परेशानियों	-10.7838
▁निराश	-10.7842
ter	-10.7842
▁पेमेंट	-10.7842
▁लैपटॉप	-10.7844
▁पान	-10.7845
▁बिंदु	-10.7845
▁उदयपुर	-10.7847
▁सावधान	-10.7847
90	-10.7848
▁co	-10.7848
▁अंकित	-10.785
▁प्रशांत	-10.7859
▁दिलीप	-10.7864
▁रियल	-10.7865
▁कर्तव्य	-10.7866
▁उपज	-10.787
est	-10.7871
▁तेरी	-10.7874
▁ष	-10.7875
▁तु	-10.7879
▁चलना	-10.789
▁आक्रमण	-10.789
▁झटके	-10.7896
▁जुटा	-10.7897
▁खनन	-10.7897
▁एसी	-10.7899
राव	-10.7899
▁छाप	-10.7901
▁किले	-10.7903
▁खेतों	-10.7905
▁अनंत	-10.7906
ारा	-10.7907
▁स्त्रियों	-10.791
▁अनुराग	-10.791
▁सूक्ष्म	-10.7917
▁लम्बी	-10.7917
▁फूट	-10.7919
one	-10.7921
कुछ	-10.7921
▁चांद	-10.7923
▁करीना	-10.7928
ुम	-10.7929
▁रथ	-10.793
▁दया	-10.793
ेयर	-10.7941
▁निवेशकों	-10.7944
▁बस्ती	-10.7946
एंगे	-10.7947
▁विशेषता	-10.7948
▁सम्मिलित	-10.795
▁निकालकर	-10.7951
▁मानसिकता	-10.7953
▁तेज़	-10.7956
ालय	-10.7959
op	-10.7962
75	-10.7965
▁दवाओं	-10.7971
▁बाज	-10.7976
▁हालाँकि	-10.7976
▁प्रसार	-10.7979
▁ताज	-10.7981
▁दिखाते	-10.7981
▁हस्तक्षेप	-10.7983
▁कमीशन	-10.7983
िक्स	-10.7984
▁मंजिल	-10.7985
▁49	-10.7986
▁लोकप्रियता	-10.7987
▁पौ	-10.7988
▁जश्न	-10.799
▁बादशाह	-10.7991
▁बजाए	-10.7997
▁एसडीएम	-10.7998
▁सदस्यता	-10.8
17	-10.8002
▁रसोई	-10.8003
▁न्यायमूर्ति	-10.8003
एगा	-10.8003
वह	-10.8004
▁थोडा	-10.801
▁सेकंड	-10.801
▁शासक	-10.8011
पत	-10.8011
▁पॉ	-10.8011
▁मनु	-10.8014
▁गर्दन	-10.8016
▁चूक	-10.8018
िमा	-10.8019
▁भंडार	-10.8024
▁मूड	-10.8024
▁आलिया	-10.8026
▁क्रीम	-10.8028
▁हराया	-10.803
▁भगवान्	-10.8031
▁Live	-10.8042
▁फे	-10.8046
▁विष	-10.8047
▁नोटिफिकेशन	-10.8057
▁दहेज	-10.8057
▁गुलाम	-10.806
wa	-10.8063
▁लाकर	-10.8063
▁बढ़ाकर	-10.8064
▁फाइबर	-10.807
▁टो	-10.8073
▁रंजन	-10.8078
▁मधुमेह	-10.8083
▁विविध	-10.8087
हित	-10.8092
▁गेल	-10.8095
▁Indian	-10.81
▁वाद	-10.8102
▁बाई	-10.8102
▁मुसीबत	-10.8104
▁6.	-10.8105
▁ब्ल	-10.8107
▁वाणी	-10.811
शास्त्र	-10.8111
तः	-10.8113
▁म्यूजिक	-10.8117
▁हू	-10.8117
▁ठंड	-10.8121
▁Ma	-10.8121
क्त	-10.8122
▁अर्	-10.8137
ैल	-10.8139
▁Me	-10.8148
▁ख़बर	-10.8151
▁दांत	-10.8152
▁सबकुछ	-10.8156
▁गला	-10.8157
▁जोन	-10.8159
▁जाट	-10.8162
▁दक्षिणी	-10.8164
शु	-10.8164
▁आपराधिक	-10.8164
▁हमलों	-10.8166
▁सेंसेक्स	-10.8171
गम	-10.8174
डर	-10.8174
▁वहीँ	-10.8176
▁टाइगर	-10.8181
▁चैनलों	-10.8187
र्द	-10.8189
▁लेनी	-10.8191
▁कमजोरी	-10.8192
▁आर्ट	-10.8194
क्यू	-10.8195
▁तौ	-10.8201
▁sex	-10.8211
▁पाचन	-10.8213
कै	-10.8216
▁इमारत	-10.8225
▁धीमी	-10.8226
▁यूट्यूब	-10.8226
▁जूस	-10.8226
▁नाते	-10.8229
टक	-10.823
ड़ियों	-10.8231
▁फॉलो	-10.8231
▁सीरिया	-10.8232
able	-10.8232
pur	-10.8233
ाइज	-10.8234
▁मानवता	-10.8243
44	-10.8246
▁बालिका	-10.8246
▁रिपोर्ट्स	-10.8249
▁Vi	-10.8249
▁शून्य	-10.8253
त्री	-10.8256
▁आतंक	-10.8258
▁फंसे	-10.826
▁कॉलोनी	-10.826
▁अनुदान	-10.8261
म्म	-10.8261
▁con	-10.8262
▁साहिब	-10.8267
▁सूजन	-10.8268
▁ऑफिसर	-10.8272
▁पड़ते	-10.8274
वेद	-10.8278
▁परमात्मा	-10.8281
▁बेकार	-10.8283
▁56	-10.8283
▁बकवास	-10.8287
▁जौहर	-10.8288
GB	-10.8294
▁गारंटी	-10.8294
ure	-10.8296
▁पुनर्	-10.8303
▁खुलकर	-10.8307
[	-10.8307
▁घंटा	-10.8307
▁खिल	-10.8309
▁An	-10.8309
▁शी	-10.8312
▁पोषक	-10.8315
क्षा	-10.8317
▁St	-10.8325
▁नमस्कार	-10.8328
▁चौथी	-10.8332
ाली	-10.8337
▁भीषण	-10.8338
▁250	-10.8343
▁नै	-10.8343
mp	-10.8351
▁ब्रह्मा	-10.8358
.3	-10.8359
▁गुफा	-10.8362
os	-10.8363
▁आरम्भ	-10.8364
▁बूथ	-10.8365
▁मतदाताओं	-10.8367
▁पचास	-10.8371
▁लौटने	-10.8373
्ली	-10.8377
▁हर्ष	-10.8377
प्त	-10.8378
▁उठाना	-10.8378
05	-10.8379
▁sa	-10.8379
▁भ्रमण	-10.8379
ंव	-10.838
▁ग्रे	-10.838
▁भु	-10.8382
▁मीरा	-10.8382
▁पेन	-10.8398
ील	-10.84
पान	-10.8401
▁टकरा	-10.8403
▁अगला	-10.8404
▁रैंकिंग	-10.8407
▁समलैंगिक	-10.8409
िकल	-10.8412
▁बोल्ड	-10.8413
▁अजमेर	-10.8413
▁दुआ	-10.8419
49	-10.8423
▁परीक्षाओं	-10.8425
▁मांगे	-10.8425
पुरी	-10.8426
▁मार्गदर्शन	-10.8426
▁हुयी	-10.8427
शिप	-10.8429
▁विवादों	-10.843
▁डालते	-10.8432
▁इंस्टीट्यूट	-10.8432
▁सांसदों	-10.8434
▁पड	-10.8436
▁मेकअप	-10.844
▁2005	-10.844
▁इंस्पेक्टर	-10.8445
▁नेट	-10.8446
▁हॉलीवुड	-10.8446
▁सियासी	-10.8448
▁उठी	-10.8452
▁दिव्य	-10.8454
▁व्यास	-10.8455
डू	-10.8456
▁विद्वान	-10.8457
▁मसीह	-10.8459
▁पुण्य	-10.8459
लाइन	-10.8461
▁निर्देशित	-10.8465
▁निभाई	-10.8466
▁निधि	-10.8467
▁प्रश्नों	-10.8468
▁सुर्खियों	-10.8468
▁मॉ	-10.8469
▁शैक्षणिक	-10.8474
▁फु	-10.8476
▁वसूली	-10.8478
▁कैश	-10.848
▁स्मरण	-10.8481
▁पाइप	-10.8482
▁सराहना	-10.8482
▁एसएसपी	-10.8485
▁जनजाति	-10.8488
▁बूब्स	-10.8488
▁मोटरसाइकिल	-10.8488
▁नरेश	-10.8494
▁कूद	-10.8494
00	-10.8497
▁महीना	-10.8499
▁किताबें	-10.8502
▁इकट्ठा	-10.8502
▁न्यायिक	-10.8504
▁भागों	-10.8505
09	-10.8509
▁शुभकामनाएं	-10.851
्का	-10.8513
▁उपरोक्त	-10.8516
पूर्व	-10.8523
▁एजेंसियों	-10.8523
▁गिरोह	-10.8524
ंडी	-10.853
▁रजिस्ट्रेशन	-10.853
▁घोटाला	-10.853
▁Latest	-10.853
▁बेटियों	-10.8532
▁मस्ती	-10.8533
▁दशकों	-10.8535
▁यश	-10.8536
▁भाइयों	-10.8539
▁स्थलों	-10.8543
▁पैकेज	-10.8544
बिल	-10.8546
▁नी	-10.8549
▁पंजाबी	-10.855
be	-10.8551
▁सचमुच	-10.8552
▁राजेन्द्र	-10.8555
फाई	-10.8557
▁पिताजी	-10.8565
वाया	-10.8567
▁चो	-10.857
▁ढक	-10.857
▁ट्रेनों	-10.8575
▁2004	-10.858
▁रेंज	-10.858
▁फैलाने	-10.8582
▁छुपा	-10.8586
▁ऐश्वर्या	-10.8591
ीक	-10.8594
▁मांगों	-10.8594
▁भागवत	-10.8595
▁हार्ट	-10.8596
प्ल	-10.86
▁घेर	-10.86
▁देसी	-10.86
▁हवै	-10.8601
▁शुभारंभ	-10.8601
▁सीसीटीवी	-10.8601
▁माननीय	-10.8602
्ज़	-10.8603
हान	-10.8604
▁पार्षद	-10.8612
▁ग्रंथ	-10.8616
ाह	-10.8617
▁अधि	-10.862
▁पहुँचा	-10.862
is	-10.8623
▁लगाये	-10.8624
टिक	-10.8626
▁पुरूष	-10.8631
▁आगमन	-10.8631
▁संयोग	-10.8632
▁निश्चय	-10.8633
95	-10.8634
▁ऑडियो	-10.8635
▁औषधि	-10.8637
▁ट्रे	-10.8639
रह	-10.864
▁एकल	-10.864
शे	-10.8641
▁बट	-10.8643
▁दीक्षित	-10.8644
▁2018:	-10.8646
▁मदन	-10.8648
▁आदित्य	-10.865
▁जापानी	-10.865
▁General	-10.8651
▁निचले	-10.8651
▁देवताओं	-10.8657
▁स्टैंड	-10.8659
64	-10.8659
रात	-10.8666
▁स्टोरेज	-10.8667
▁वायरस	-10.8668
▁मेन	-10.8675
▁बेड	-10.8676
▁हज	-10.8676
▁नाव	-10.8679
▁मारी	-10.8682
▁टै	-10.8682
▁बेंच	-10.8683
ip	-10.8687
▁अल्प	-10.8688
▁दुल्हन	-10.8689
ear	-10.869
ud	-10.8693
▁सर्जरी	-10.8694
▁जहर	-10.8699
▁देखिये	-10.8702
48	-10.8703
▁अनुच्छेद	-10.8708
▁आर्टिकल	-10.8708
▁आँख	-10.8713
▁निभाने	-10.8714
▁लापता	-10.8715
▁लाभदायक	-10.8716
▁राशिफल	-10.8718
▁चीख	-10.8718
▁कन्	-10.8719
▁गंदगी	-10.8722
▁शशि	-10.8724
▁सिंगल	-10.8726
98	-10.8728
▁समुद्री	-10.8729
▁हराकर	-10.8732
▁बॉल	-10.8745
▁तहरीर	-10.8751
ेरा	-10.8753
▁लाए	-10.8755
▁चयनित	-10.8758
▁टैटू	-10.8758
▁सेल्फी	-10.876
▁बेशक	-10.8765
▁ट्रांसफर	-10.8766
▁श्रद्धालुओं	-10.8767
▁प्रिया	-10.8768
▁सौदा	-10.8769
ताओं	-10.8774
ेक्ट	-10.878
▁प्रसंग	-10.8781
▁मकर	-10.8785
▁हथियारों	-10.8786
▁मैक	-10.8786
▁गेम्स	-10.8787
▁आँखें	-10.8787
▁क्षमा	-10.8787
▁टाल	-10.8788
▁पट्टी	-10.8795
▁जै	-10.8796
▁भ्रम	-10.8797
▁फसलों	-10.8797
▁बदन	-10.8798
▁ब्रेकिंग	-10.8799
▁भ्रष्ट	-10.8801
▁खाद	-10.8808
▁संवैधानिक	-10.8816
ow	-10.8816
▁सोचना	-10.8822
ाप	-10.883
▁अग्रिम	-10.8831
ोट	-10.8832
▁इनकम	-10.8833
▁सौर	-10.8836
▁अदरक	-10.8839
per	-10.8841
▁अज	-10.8842
▁जस	-10.8844
▁चिंतित	-10.8845
▁न्यूजीलैंड	-10.8845
▁New	-10.8846
em	-10.8846
▁चलकर	-10.885
▁लौटा	-10.885
▁एप्लीकेशन	-10.8852
▁सिरे	-10.8854
ांक	-10.8855
▁स्पेस	-10.8855
दिन	-10.8859
va	-10.886
2018	-10.8864
मेट	-10.8865
▁व्यय	-10.8868
▁नशा	-10.8871
अगर	-10.8877
▁सबकी	-10.8877
▁बद	-10.8877
▁साम्राज्य	-10.8884
बाज	-10.8894
▁जलवायु	-10.8896
▁सोम	-10.8897
ग्राम	-10.8897
av	-10.8897
▁सार्थक	-10.8901
▁समृद्धि	-10.8901
▁you	-10.8909
▁Ch	-10.8909
्द	-10.891
▁चार्ट	-10.8911
▁विदेशों	-10.8911
ss	-10.8914
▁अमृतसर	-10.8914
▁झुक	-10.8917
▁पैटर्न	-10.8918
▁कंधे	-10.8918
▁चैट	-10.8919
इंग	-10.8919
▁सूखे	-10.8925
▁मिठाई	-10.8925
▁हल्की	-10.8926
▁चलाते	-10.8926
बंद	-10.8927
▁आदिवासियों	-10.893
▁हितों	-10.8931
▁इटली	-10.8933
कट	-10.8934
▁दुबे	-10.8935
उस	-10.8936
▁बढ़े	-10.8936
▁आवंटन	-10.894
......	-10.8941
द्य	-10.8942
▁समानता	-10.8942
▁ke	-10.8943
▁बरेली	-10.8947
▁निराशा	-10.895
▁पूर्ति	-10.895
ीर	-10.8951
▁उत्साहित	-10.8953
▁लहसुन	-10.8954
▁रामायण	-10.8956
lu	-10.8959
▁उपयोगकर्ता	-10.8963
▁मोटी	-10.8967
▁चिल्ला	-10.8969
▁कहानियां	-10.8969
▁पाण्डेय	-10.897
बाल	-10.8971
तिक	-10.8977
▁Ba	-10.898
मेन	-10.8983
▁आलेख	-10.899
▁बढा	-10.899
▁जुटे	-10.8992
▁भंग	-10.8993
ty	-10.8993
▁भूषण	-10.8996
▁पासपोर्ट	-10.9002
ेला	-10.9004
▁संचालक	-10.9004
▁अस्पतालों	-10.9005
▁इंडेक्स	-10.9021
▁http	-10.9021
▁निर्मल	-10.9021
▁i	-10.9026
▁एनडीए	-10.9032
43	-10.9034
बाग	-10.9034
▁क्राइम	-10.9035
▁अतीत	-10.9036
kh	-10.9037
▁तलवार	-10.9037
▁तमिल	-10.9038
▁श्र	-10.9042
▁कारगर	-10.9047
बाई	-10.9048
एसटी	-10.9048
▁डिप्टी	-10.905
▁बैन	-10.9054
ast	-10.9054
59	-10.9054
▁एजेंट	-10.9054
▁जीतकर	-10.9056
▁ते	-10.9057
▁चंद्रमा	-10.9058
▁वास्तविकता	-10.906
ah	-10.9064
▁विविधता	-10.9065
जनों	-10.9065
▁कलम	-10.9072
▁बायो	-10.9073
ai	-10.9074
मै	-10.9077
▁बजा	-10.908
▁Comments	-10.9083
▁सच्चा	-10.9083
▁उपभोक्ताओं	-10.9084
▁st	-10.9086
▁उलट	-10.9086
▁यद्यपि	-10.9087
42	-10.9089
▁कर्ण	-10.909
▁भागने	-10.9091
▁अंदाज़	-10.9093
▁रेत	-10.9094
▁गतिविधि	-10.9094
▁विकल्पों	-10.9095
▁नैतिक	-10.9096
▁सिंगापुर	-10.9102
▁टेनिस	-10.9102
▁लड़ा	-10.9105
जान	-10.9105
',	-10.9106
▁अक्तूबर	-10.911
▁इंतज़ार	-10.911
▁गैंग	-10.9113
्टर	-10.9115
नु	-10.9122
ताल	-10.9125
▁लड	-10.9126
▁पार्वती	-10.9129
दारी	-10.9135
▁अखबारों	-10.9136
▁Th	-10.9139
▁इन्द्र	-10.9141
थी	-10.9141
▁यार	-10.9146
▁ईंधन	-10.9147
▁अनुशासन	-10.9147
▁दवाई	-10.9152
▁व्य	-10.9153
▁धक्का	-10.9155
▁विहार	-10.916
रम	-10.916
▁निकलते	-10.9161
▁अगुवाई	-10.9169
▁मतभेद	-10.917
▁सूचकांक	-10.9177
▁राजू	-10.918
चित	-10.9182
▁अग्रणी	-10.9187
▁साइन	-10.919
▁फिटनेस	-10.9192
▁तिलक	-10.9197
▁mo	-10.9197
▁लाभकारी	-10.9198
▁Off	-10.92
▁गाली	-10.92
ind	-10.9201
कर्म	-10.9203
▁गुलाबी	-10.9203
्ब	-10.9204
▁सिल	-10.9205
▁पर्यटकों	-10.9205
▁गम	-10.9205
▁सेमीफाइनल	-10.9207
▁कस्बे	-10.9207
▁चिंतन	-10.9207
क्शन	-10.9212
वाने	-10.9214
▁आरबीआई	-10.9215
fe	-10.9216
▁Medi	-10.9216
▁छूने	-10.9222
उन	-10.9223
▁पुराण	-10.9223
▁हरिद्वार	-10.923
▁Pradesh	-10.9237
▁अनुपात	-10.9238
▁नील	-10.9238
▁उत्	-10.9241
▁स्वप्न	-10.9243
▁सशक्त	-10.9243
▁पर्सनल	-10.9245
▁समग्र	-10.9247
▁54	-10.9248
▁शान्ति	-10.9254
▁आओ	-10.9254
नेट	-10.9258
ence	-10.9263
घा	-10.9264
▁खरीदा	-10.9265
▁धार	-10.9267
▁ओबामा	-10.9267
टेन	-10.9276
▁सपनों	-10.9277
द्	-10.9279
▁पेयजल	-10.9283
▁जप	-10.9287
▁साम	-10.9295
कांत	-10.9296
▁टमाटर	-10.9298
▁निष्कर्ष	-10.9298
▁मल्टी	-10.9298
म्बर	-10.9304
▁यूँ	-10.9306
▁गज	-10.9307
▁मौलिक	-10.9309
क्ल	-10.9309
▁फलों	-10.9309
▁कुक	-10.9317
▁फोर्स	-10.9319
▁अक	-10.9327
▁खातिर	-10.9328
▁तर्ज	-10.9331
▁छेद	-10.9345
▁पढ़कर	-10.9349
▁वर्गों	-10.9349
ie	-10.935
▁प्रोत्साहन	-10.9351
क्का	-10.9352
▁सिद्धार्थ	-10.9359
▁सच्ची	-10.9359
ting	-10.9367
▁मसले	-10.9367
▁चक	-10.9371
▁सेवक	-10.9376
▁साधा	-10.9379
▁नाइट	-10.9387
पत्नी	-10.9391
▁ढ	-10.9391
▁छापेमारी	-10.9397
प्स	-10.9398
▁प्रभावशाली	-10.9398
-11	-10.9398
▁एकड़	-10.94
▁सौदे	-10.9403
▁कमान	-10.9412
▁गिलास	-10.9413
▁योनि	-10.942
▁सतीश	-10.9427
▁7.	-10.9427
▁संज्ञा	-10.9431
स्ता	-10.9443
▁आज़ादी	-10.9443
▁जिन्दगी	-10.9443
▁बिल्डिंग	-10.9451
ive	-10.9454
▁Mo	-10.9454
▁फैक्ट्री	-10.9459
▁नक्सली	-10.9465
▁कैरियर	-10.9467
▁परिभाषा	-10.9467
▁शॉपिंग	-10.9468
www	-10.9473
▁अवकाश	-10.9474
▁ग्रेड	-10.9477
भूमि	-10.9478
मुक्त	-10.9479
▁सत	-10.948
31	-10.9482
▁खातों	-10.9483
स्टिक	-10.9485
▁भड़क	-10.9486
▁फीचर्स	-10.9489
▁एजुकेशन	-10.949
▁नितिन	-10.949
▁लैस	-10.949
्की	-10.9493
ाइल	-10.95
▁थोक	-10.9502
▁मर्द	-10.9504
▁मंत्रिमंडल	-10.9505
ूंगा	-10.9509
▁किताबों	-10.9511
▁नायडू	-10.9513
▁गौरी	-10.9513
ट्रो	-10.9516
ॉट	-10.9521
पू	-10.9523
▁लोकल	-10.9529
▁जुटी	-10.9532
▁विनय	-10.9535
▁ट्र	-10.9543
▁चैंपियन	-10.9544
▁अभ्यर्थी	-10.9544
▁ऑयल	-10.9544
▁इलेक्ट्रॉनिक	-10.9547
▁चिन्ह	-10.9549
▁जलन	-10.9551
▁बाइनरी	-10.9552
all	-10.9552
▁राजमार्ग	-10.9553
▁मजेदार	-10.956
▁दिखती	-10.9562
जुल	-10.9564
▁Ho	-10.9566
▁मुनि	-10.9567
▁न्यूयॉर्क	-10.9567
▁अंसारी	-10.9567
▁घास	-10.957
▁एकजुट	-10.9573
▁दादी	-10.9573
▁पॉलिसी	-10.9575
▁दीजिये	-10.9575
▁राजन	-10.9576
झा	-10.9576
खर	-10.958
▁अध्याय	-10.9583
▁शुगर	-10.9583
▁ताज़ा	-10.9584
▁पढ़ना	-10.9587
▁बच्चो	-10.959
▁अक्षर	-10.959
▁खुफिया	-10.9591
▁उन्नत	-10.9597
▁वास	-10.9598
▁माफ	-10.9599
्टन	-10.9599
र्इ	-10.96
▁डेब्यू	-10.96
ाग	-10.9601
▁शाही	-10.9604
▁गुड़	-10.9606
▁अलर्ट	-10.9608
▁app	-10.9609
▁किडनी	-10.9615
▁अं	-10.9616
▁देखेंगे	-10.9618
▁साहित्यिक	-10.962
▁कर्मी	-10.9621
मिक	-10.9622
मंडल	-10.9625
▁समूहों	-10.9625
▁कोटा	-10.9625
ou	-10.9626
▁करूंगा	-10.9627
▁पोर्न	-10.9632
▁स्कूली	-10.9633
▁फोटोग्राफी	-10.9635
ंटा	-10.9635
▁खिड़की	-10.9638
▁फै	-10.964
ौल	-10.9641
ैक	-10.9642
▁प्रवीण	-10.9646
▁गवर्नर	-10.9653
54	-10.9654
▁शूट	-10.9656
▁r	-10.9656
▁चूस	-10.9661
▁अनशन	-10.9664
तल	-10.9668
▁मरम्मत	-10.9669
▁ऊपरी	-10.9671
▁कैच	-10.9678
▁पीना	-10.9679
▁https	-10.9689
51	-10.969
ेष	-10.9692
▁प्रयत्न	-10.9693
▁प्रवर्तन	-10.9693
58	-10.9694
▁use	-10.9695
▁विमर्श	-10.9696
ाराम	-10.9696
▁सवा	-10.9697
ैट	-10.97
▁आंसू	-10.9701
▁जबरन	-10.9701
▁साइबर	-10.9704
▁गड़बड़ी	-10.9706
▁दुनियाभर	-10.9711
▁मददगार	-10.9713
▁यो	-10.9713
▁सोनू	-10.9714
▁ड्राइव	-10.9715
▁वर्क	-10.9716
01	-10.9716
▁तुर्की	-10.9724
▁अतिक्रमण	-10.9725
fi	-10.9725
▁आईडी	-10.9725
▁कॉलेजों	-10.9728
▁अनुभवी	-10.9728
ंडर	-10.9732
▁गिनती	-10.9735
ोगे	-10.9737
▁होश	-10.9737
▁थकान	-10.9739
▁नफरत	-10.974
47	-10.9744
▁लेगा	-10.9745
बहुत	-10.9746
▁गाड़ियों	-10.9751
:00	-10.9754
▁नीम	-10.9755
ग्र	-10.9755
ver	-10.9758
▁मन्त्र	-10.9758
ड्ढ	-10.9764
▁कांग्रेसी	-10.9765
्ह	-10.9765
▁Pa	-10.9766
ाये	-10.9767
्ति	-10.9768
▁व्यंग्य	-10.9769
्ले	-10.977
पात	-10.977
▁एक्सरसाइज	-10.9772
▁pro	-10.9774
▁प्रतीक्षा	-10.978
▁नोटों	-10.9783
▁स्ट्र	-10.9784
▁रॉय	-10.9789
▁निलंबित	-10.9796
▁बहनों	-10.9797
▁कार्यशाला	-10.9798
▁पुरी	-10.9799
प्रकाश	-10.9805
▁बारी	-10.9807
▁कुंभ	-10.9811
ुन	-10.9811
▁उग्र	-10.9813
▁तारा	-10.9816
▁सिगरेट	-10.9816
▁तैयारियों	-10.9817
▁सोचता	-10.9817
स्ट्र	-10.982
▁सुखद	-10.9821
▁लालच	-10.9823
प्रति	-10.9823
▁पच	-10.9826
▁डाय	-10.9827
▁लोहा	-10.9827
नीय	-10.9827
नेस	-10.9827
क्क	-10.9828
▁व्हाइट	-10.9828
▁नामों	-10.983
▁इसने	-10.9832
▁j	-10.9839
▁पौधों	-10.9841
▁मौर्य	-10.9844
▁सम्बन्धित	-10.9845
▁मजदूरी	-10.9848
▁लगीं	-10.9848
▁कोमल	-10.9849
िंदर	-10.9855
▁Download	-10.986
▁बेंगलुरु	-10.986
▁रसायन	-10.9861
जिन	-10.9861
▁लेखकों	-10.9865
इयों	-10.9865
▁खाया	-10.9866
▁सच्चे	-10.9868
▁किलोग्राम	-10.9869
▁Man	-10.9871
▁बराबरी	-10.9875
▁रज	-10.9875
▁परिवर्तित	-10.9876
▁डिस्क	-10.9881
▁नाना	-10.9883
▁मिक्स	-10.9883
▁आरोपित	-10.9885
ेंगी	-10.989
▁नित्य	-10.9891
▁डिज़ाइन	-10.9892
▁फरीदाबाद	-10.9892
दन	-10.9893
▁पढ़ी	-10.9895
ba	-10.9897
▁एमपी	-10.9898
▁आचरण	-10.9899
▁प्रथा	-10.9901
▁निकाले	-10.9902
▁खाई	-10.9906
धान	-10.9906
▁मुहिम	-10.9909
ाध	-10.991
ice	-10.991
▁बहुजन	-10.9913
▁उमेश	-10.9917
▁वीर्य	-10.9917
56	-10.9917
▁फर	-10.9917
ट्री	-10.9918
▁तीस	-10.992
▁जिनको	-10.9925
▁इंडोनेशिया	-10.9925
▁कैप्टन	-10.9925
▁अनुबंध	-10.9925
AN	-10.9926
hu	-10.9928
▁इलेक्ट्रिक	-10.993
▁अपनाने	-10.9931
पद	-10.9932
▁केशव	-10.9935
प्रो	-10.9939
▁धैर्य	-10.9941
▁मुन्ना	-10.9942
छोटे	-10.9946
ub	-10.9947
▁पका	-10.9947
▁टेलीविजन	-10.9949
▁पोर्ट	-10.995
▁बोध	-10.9951
▁पत्रों	-10.9952
▁(1)	-10.9952
▁निरीक्षक	-10.9957
▁प्लेटफार्म	-10.9957
tion	-10.9958
▁कारक	-10.9963
ana	-10.9964
क्षेत्र	-10.9965
▁बदौलत	-10.9965
▁अवॉर्ड	-10.9965
ction	-10.9966
▁इजाफा	-10.9967
▁ललित	-10.9969
▁उठने	-10.9969
▁जोड़कर	-10.9972
▁website	-10.9973
▁मुजफ्फरनगर	-10.9973
▁खन्ना	-10.9974
▁Co	-10.9975
▁नेहा	-10.9975
▁त्रिपुरा	-10.9982
ट्रिक	-10.9984
▁संध्या	-10.999
▁कोशिकाओं	-10.9991
▁वें	-10.9991
▁समझाने	-10.9992
▁प्रसारित	-10.9993
▁बैल	-10.9997
▁लोकतांत्रिक	-10.9998
ct	-11.0003
▁बूंद	-11.0005
▁कॉन्फ्रेंस	-11.0006
▁विनिमय	-11.0006
▁शिष्य	-11.0007
बाप	-11.0007
▁तुझे	-11.0009
0,000	-11.001
▁कराते	-11.001
▁छोड	-11.0012
टल	-11.0013
▁समझता	-11.002
▁पंत	-11.0022
▁गेज	-11.0023
▁सौभाग्य	-11.0023
प्रेम	-11.0024
गुरु	-11.0028
ब्ल	-11.0032
▁धोखाधड़ी	-11.0032
र्ष	-11.0033
▁La	-11.0038
▁ट्रांस	-11.0041
▁ट्यूब	-11.0042
▁गुदा	-11.0045
▁क्यूंकि	-11.0047
▁छल	-11.0051
▁दिखाए	-11.0052
▁कड़े	-11.0054
▁vi	-11.0062
▁अड्डे	-11.0063
▁सल	-11.0065
▁स्वीकृत	-11.0065
▁सब्सिडी	-11.0071
▁Oneindia	-11.0071
▁स्वादिष्ट	-11.0072
▁फिल्मी	-11.0076
थि	-11.0076
▁निर्धारण	-11.008
काम	-11.0085
▁उज्जैन	-11.0088
▁रच	-11.0091
ज़र	-11.0093
▁लक	-11.0094
▁असिस्टेंट	-11.0096
▁निवारण	-11.0096
तरह	-11.0101
▁सोन	-11.0101
▁दलाल	-11.0102
▁डु	-11.0104
▁प्रत्याशियों	-11.0104
▁सबक	-11.0106
po	-11.0109
▁अंतर्	-11.0114
▁भावुक	-11.0114
▁आईएएस	-11.0114
▁घटा	-11.0117
▁फ्ल	-11.0119
▁कड़ा	-11.012
▁द्विवेदी	-11.0121
66	-11.0121
▁माधव	-11.0121
▁स्पर्श	-11.0121
▁रेड्डी	-11.0129
▁राउंड	-11.0132
▁सरपंच	-11.0138
ुओं	-11.014
▁आकलन	-11.0146
च्च	-11.0146
▁स्वार्थ	-11.015
▁गिल	-11.0151
▁ब्रिज	-11.0154
▁साहू	-11.0155
▁पट	-11.0157
▁कैफ	-11.0157
▁ग्रहों	-11.0161
▁पंख	-11.0161
▁वितरित	-11.0162
▁शीतल	-11.0163
▁ठहराया	-11.0164
▁देखती	-11.0166
▁inextlive	-11.017
ॉक	-11.0176
▁कार्बन	-11.0176
▁गाजियाबाद	-11.0179
▁मजिस्ट्रेट	-11.0179
▁हानिकारक	-11.0179
▁प्रेशर	-11.0179
ैस	-11.0181
▁दूंगा	-11.0181
▁विधा	-11.0183
▁क्व	-11.0184
▁तथ्यों	-11.0185
▁पंजीकृत	-11.0187
▁इमेज	-11.0189
र्ण	-11.019
निर्देश	-11.019
▁साहित्यकार	-11.0195
▁तंग	-11.0196
▁एक्टिंग	-11.0197
▁प्रबल	-11.02
68	-11.0201
मुझे	-11.0202
▁पीले	-11.0203
▁रिश्वत	-11.0204
▁खरीदारी	-11.0206
▁गिरी	-11.0207
▁बचें	-11.0207
▁फट	-11.0209
▁प्रीमियम	-11.0212
▁मुहम्मद	-11.0212
72	-11.0213
ॉय	-11.0214
▁ईमानदार	-11.0214
▁रिहा	-11.0215
▁Ad	-11.0219
-4	-11.022
▁मिसाल	-11.0222
▁हॉ	-11.0222
▁चलाई	-11.0224
▁नारा	-11.0225
▁लता	-11.0226
▁चंदन	-11.0228
▁रोम	-11.0228
▁प्रतिरोध	-11.0231
न्यू	-11.0236
▁एंटरटेनमेंट	-11.0237
▁बाघ	-11.0239
▁अम	-11.0241
▁पाएगा	-11.0242
▁मुआवजा	-11.0245
▁तब्दील	-11.0245
▁गर्मियों	-11.0247
ूद	-11.0248
▁शिवपाल	-11.0252
लाई	-11.0253
▁2002	-11.0253
▁कहानियाँ	-11.0254
▁अटैक	-11.0256
46	-11.0257
निंग	-11.0262
67	-11.0262
▁खासतौर	-11.0263
▁पढ़िए	-11.0267
ट्र	-11.027
चक	-11.027
▁बुराई	-11.0271
▁आज्ञा	-11.0276
▁उतरने	-11.0278
▁चूसने	-11.0278
▁गर्लफ्रेंड	-11.0279
▁नीरव	-11.0279
ज्ञान	-11.0279
▁जर्मन	-11.028
▁Facebook	-11.0282
▁पिछड़े	-11.0285
▁di	-11.029
▁समझाया	-11.0295
▁हिंदुओं	-11.0296
▁हैरानी	-11.0298
▁सदियों	-11.0299
क्षण	-11.0301
▁रोमांटिक	-11.0304
▁तुम्हे	-11.0304
▁पीड़ितों	-11.0305
od	-11.0309
ांत	-11.0311
▁अन्याय	-11.0313
▁डिक	-11.0318
▁पुरे	-11.0319
▁सांप्रदायिक	-11.0319
▁53	-11.032
▁गिफ्ट	-11.0321
▁डेरा	-11.0321
▁उपवास	-11.0321
▁रोगियों	-11.0321
।[	-11.0325
▁औरतों	-11.0326
▁तृतीय	-11.0327
63	-11.0328
▁दिग्विजय	-11.0329
▁सावन	-11.0329
▁67	-11.0331
▁बुकिंग	-11.0331
▁धर	-11.0331
▁अना	-11.0333
▁पासवर्ड	-11.0333
▁120	-11.0337
जय	-11.0342
▁चौथा	-11.0344
▁बचना	-11.0344
▁सफ़ेद	-11.0346
ash	-11.0349
▁अभियंता	-11.0354
▁वरदान	-11.0355
▁प्राइमरी	-11.0356
▁सीओ	-11.0357
▁कद	-11.0358
▁लौटे	-11.0359
▁इस्लामी	-11.0361
▁स्पर्धा	-11.0363
▁नकल	-11.0368
▁उठकर	-11.037
▁चैंपियनशिप	-11.0371
▁लीड	-11.0372
▁शॉट	-11.0374
सिया	-11.0379
▁ख़राब	-11.038
▁सम्भव	-11.038
▁सकेगी	-11.0382
▁App	-11.0388
▁कॉन्	-11.0389
03	-11.0391
▁आह	-11.0392
▁काउंसिल	-11.0393
▁लाहौर	-11.0397
▁प्लेटफॉर्म	-11.0397
इए	-11.0402
▁धुन	-11.0402
▁मुकदमे	-11.0405
▁दुर्ग	-11.0411
ष्	-11.0412
▁जाप	-11.0413
▁पद्म	-11.0413
▁सुमन	-11.0414
▁कैल्शियम	-11.0414
▁बिलासपुर	-11.0414
▁कृति	-11.0415
▁छेड़	-11.0416
85	-11.0416
▁सुधारने	-11.0417
▁(2	-11.0421
▁पायी	-11.0421
ex	-11.0422
▁बताएं	-11.0422
▁85	-11.0424
▁स्टे	-11.0425
▁पौराणिक	-11.0431
▁अंकल	-11.0434
उप	-11.0434
▁जबलपुर	-11.0436
▁पहलवान	-11.0437
ड़क	-11.0441
▁कोयला	-11.0449
रल	-11.0449
▁अर्जित	-11.0449
▁महावीर	-11.045
▁अंडे	-11.0451
▁बाँध	-11.0452
▁शायरी	-11.0455
▁दर्जनों	-11.0455
▁v	-11.0455
▁Medicine	-11.0456
पै	-11.0457
▁निहित	-11.0458
▁मुल्क	-11.0458
टि	-11.0459
ndia	-11.046
-19	-11.0463
▁मराठी	-11.0465
चु	-11.0469
न्ट	-11.0471
बोध	-11.0472
▁कांस्टेबल	-11.0473
▁अल्	-11.0476
▁मानवाधिकार	-11.0477
▁सब्जियों	-11.0482
▁छाती	-11.0483
▁उतारा	-11.0484
▁घटनास्थल	-11.0484
हाल	-11.0489
▁संवेदना	-11.0489
▁जगदीश	-11.0491
▁सौंपी	-11.0492
▁po	-11.0494
▁ठेकेदार	-11.0494
100	-11.0498
▁ग्लास	-11.05
▁बाबत	-11.05
▁वेस्ट	-11.05
ेरी	-11.05
पार	-11.05
▁भयानक	-11.0507
▁गोलीबारी	-11.0508
प्रा	-11.0508
लिक	-11.0509
▁शमी	-11.051
सेन	-11.0511
रान	-11.0511
▁योजनाएं	-11.0511
▁सेठ	-11.0515
▁अवधारणा	-11.0522
▁पशुओं	-11.0523
▁गार्डन	-11.0532
▁पूनम	-11.0533
▁ट्रैक्टर	-11.0534
▁चिर	-11.0534
71	-11.0537
▁छु	-11.054
!!	-11.0542
▁मान्य	-11.0545
▁59	-11.0545
।''	-11.0547
-5	-11.0548
▁तीव्र	-11.0549
▁मसाला	-11.0551
▁सुनाया	-11.0551
▁ट्रॉफी	-11.0559
▁ब्रांच	-11.056
▁दिलाया	-11.056
▁विभागीय	-11.0564
▁बडी	-11.0565
अपनी	-11.0565
▁स्मारक	-11.0568
▁आचार	-11.0568
▁बिखर	-11.0569
▁कम्प	-11.0571
▁डेविड	-11.0576
▁सैनी	-11.058
▁मौन	-11.0581
▁तेंदुलकर	-11.0585
▁अनूप	-11.0585
▁पेट्रोलियम	-11.0586
▁हाईवे	-11.0587
▁स्वयंसेवक	-11.0588
▁पिला	-11.059
▁सहन	-11.0594
▁मानकर	-11.0594
▁हिस्सेदारी	-11.0594
▁तैयारियां	-11.0595
▁रूचि	-11.0595
200	-11.0597
▁मुनाफा	-11.0601
▁पक्षी	-11.0603
oo	-11.0604
▁कू	-11.0608
▁pa	-11.0609
▁अधिग्रहण	-11.0611
▁जानकार	-11.0612
▁साक्षी	-11.0612
▁बैंड	-11.0613
▁मोटे	-11.0616
▁दस्तावेजों	-11.0619
द्व	-11.0619
▁उंगली	-11.062
▁मार्केटिंग	-11.0623
्ला	-11.0623
▁घुसपैठ	-11.0628
▁उछाल	-11.0628
▁उद्योगों	-11.0629
ल्	-11.0633
▁जरूरतों	-11.0636
▁इस्लामिक	-11.0636
▁वसुंधरा	-11.0637
▁सिद्धू	-11.0637
▁फोकस	-11.0637
▁पुलिसकर्मियों	-11.0637
▁सक	-11.0638
सब	-11.0641
▁फील्ड	-11.0646
▁ईरानी	-11.0651
▁अनुभूति	-11.0654
▁चैन	-11.0655
▁बिठा	-11.0656
तब	-11.0656
सान	-11.0659
म्भ	-11.0662
▁डेंगू	-11.0663
▁नर्मदा	-11.0663
▁गुज़र	-11.0664
84	-11.0664
▁संगम	-11.0666
▁बादाम	-11.0667
76	-11.0667
ick	-11.0668
िशन	-11.067
▁कमिश्नर	-11.0672
▁गुट	-11.0672
▁फैमिली	-11.0672
▁निजात	-11.0673
समझ	-11.0674
▁खोजने	-11.0681
▁सुल्तान	-11.0684
▁गड़बड़	-11.0684
52	-11.0685
▁डायबिटीज	-11.0689
▁महत्त्वपूर्ण	-11.069
▁दीवाली	-11.0692
▁68	-11.0693
▁रियो	-11.0696
89	-11.0698
▁h	-11.0698
▁58	-11.07
प्पा	-11.0701
-6	-11.0703
▁कारों	-11.0703
▁प्रोडक्शन	-11.0707
▁चाकू	-11.0708
▁टीमें	-11.0709
मिया	-11.0711
्हा	-11.0713
▁रहो	-11.0715
▁फ्लाइट	-11.0716
▁सीखा	-11.0716
▁बसों	-11.0721
▁कश्यप	-11.0724
▁इंग्लिश	-11.0724
▁स्थितियों	-11.0724
ki	-11.0725
▁ख़	-11.0727
61	-11.073
▁सैर	-11.0735
▁मेष	-11.0738
ान्त	-11.0739
▁फैन	-11.0741
▁चलन	-11.0741
▁ba	-11.0742
▁अमन	-11.0742
▁रासायनिक	-11.0742
▁socal	-11.0742
▁do	-11.0743
▁शक्तियों	-11.0743
▁दिलचस्पी	-11.0747
▁समझे	-11.0749
▁चुरा	-11.0752
▁कंस	-11.0754
▁रॉयल	-11.0755
▁खण्ड	-11.0755
िना	-11.0757
ऑ	-11.0757
▁मामा	-11.0757
▁नागपुर	-11.0757
बै	-11.0758
▁ट्रेंड	-11.0759
▁गैंगरेप	-11.0759
▁Al	-11.076
अल	-11.0763
▁खरीदी	-11.0763
▁गोलियां	-11.0766
कोर	-11.0766
▁प्रतिबंधित	-11.0767
▁यथार्थ	-11.0767
▁विफल	-11.0768
▁मेहमान	-11.0771
ight	-11.0772
les	-11.0775
▁उतने	-11.0777
▁किसने	-11.0778
▁बीकानेर	-11.0781
▁2003	-11.0784
स्त्र	-11.0786
▁बेन	-11.0793
▁रखेंगे	-11.0793
▁चुपचाप	-11.0794
▁धु	-11.0795
▁सुरेंद्र	-11.0795
नारायण	-11.0795
▁औपचारिक	-11.08
चित्र	-11.0802
▁अरूण	-11.0803
▁बोस	-11.0804
▁प्राणी	-11.0804
▁बढ़ेगा	-11.0805
गढ	-11.0808
▁टूटने	-11.0811
▁Delhi	-11.0812
▁सम्पर्क	-11.0812
▁निष्पक्ष	-11.0812
▁मण्डल	-11.0814
▁जायें	-11.0816
▁पिछड़ा	-11.082
▁are	-11.0822
ग़	-11.0825
▁भांति	-11.0829
▁सेल्सियस	-11.083
▁अजीत	-11.083
▁खोले	-11.0832
▁जहा	-11.0832
▁पर्यटक	-11.0832
▁वोटर	-11.0835
▁कॉमेडी	-11.0839
▁सूट	-11.0844
▁मीन	-11.0846
▁बसे	-11.0848
▁रेफर	-11.0849
▁बताओ	-11.0852
रानी	-11.0853
▁यीशु	-11.0856
▁बारीक	-11.0857
▁एम्स	-11.0857
▁2017-18	-11.0857
▁हंसी	-11.0862
▁रीति	-11.0863
▁जंगलों	-11.0867
ाते	-11.0867
▁ताला	-11.0868
▁आयुर्वेदिक	-11.0869
कारों	-11.0871
▁कोष	-11.0872
▁केदारनाथ	-11.0874
▁पुकार	-11.0875
▁नकदी	-11.0876
स्थल	-11.0881
▁दबंग	-11.0882
ाद	-11.0882
▁रोने	-11.0885
भि	-11.0885
ng	-11.0887
शर	-11.0888
▁सील	-11.0888
▁कोचिंग	-11.0889
du	-11.089
▁साई	-11.0891
▁वादे	-11.0891
▁नम	-11.0892
ig	-11.0894
▁बलिदान	-11.0903
▁उन्नति	-11.0903
▁अधिवक्ता	-11.0907
▁उतरे	-11.0908
▁उपायों	-11.0909
▁डाइट	-11.091
▁Con	-11.091
▁सम्राट	-11.091
▁फर्म	-11.091
▁एचडी	-11.091
कर्मियों	-11.0915
▁मोटा	-11.0915
ेबल	-11.0921
▁घातक	-11.0922
▁अंबेडकर	-11.0928
▁पादुकोण	-11.0928
▁हिंसक	-11.0928
ैक्ट	-11.0929
97	-11.093
राज्य	-11.0932
ाए	-11.0933
ाऊ	-11.0933
▁घेरे	-11.0933
▁शान	-11.0935
sa	-11.0936
ot	-11.0937
▁हिन्दुओं	-11.0938
००	-11.0942
▁स्थगित	-11.0946
▁Di	-11.0946
▁गवाह	-11.0948
▁चारा	-11.0948
▁व्यावहारिक	-11.0948
ड़ों	-11.0951
▁or	-11.0956
▁किशोरी	-11.0963
▁किशन	-11.0965
▁मिनी	-11.0966
▁Na	-11.097
▁नस्ल	-11.0971
▁सरसों	-11.0973
आउट	-11.0975
▁गाल	-11.0975
▁घोल	-11.0975
ोद	-11.0979
▁बढ़ेगी	-11.098
▁चाहा	-11.098
▁उप्र	-11.098
▁84	-11.0982
▁संगीतकार	-11.0982
▁सेंट	-11.0982
इश	-11.0987
▁निकलता	-11.0988
▁आडवाणी	-11.099
▁दबाने	-11.0991
▁संभालने	-11.0994
ट्टी	-11.0997
▁निवेदन	-11.0999
▁पेंट	-11.1
▁अउर	-11.1001
▁नेत्र	-11.1001
▁la	-11.1003
▁भुला	-11.1003
खंड	-11.1006
जीबी	-11.1011
फ्र	-11.1011
माला	-11.1013
▁शायर	-11.1014
▁वेरिएंट	-11.1017
▁गृहमंत्री	-11.1018
▁गाइड	-11.1019
▁सरकारें	-11.1022
▁एज	-11.1023
▁मिट	-11.1026
▁जुलूस	-11.1027
▁लेनदेन	-11.1027
ोज	-11.1032
ब्ब	-11.1033
▁रजिस्टर	-11.1035
▁मनाई	-11.1035
▁प्रमाणित	-11.1037
▁आस्ट्रेलिया	-11.1039
▁रतन	-11.1042
▁भरत	-11.1042
बाजी	-11.1043
▁गाया	-11.1043
:30	-11.1044
▁वाशिंगटन	-11.1045
▁गर्भावस्था	-11.1045
▁Video	-11.1048
▁आल	-11.1048
▁शोभा	-11.105
▁ख़िलाफ़	-11.1054
▁ऑर्डर	-11.1055
▁राख	-11.1058
▁राज्यमंत्री	-11.1058
डिंग	-11.1058
▁मीना	-11.1059
▁अग	-11.1059
▁लटक	-11.1065
्ना	-11.1067
ual	-11.107
▁लंबाई	-11.1072
▁सनातन	-11.1072
ड्र	-11.1079
▁स्वा	-11.108
▁आक्रामक	-11.1081
▁तथाकथित	-11.1081
▁पत्तों	-11.1081
▁अर्चना	-11.1088
▁बाथरूम	-11.109
▁स्टूडेंट	-11.1091
▁हेयर	-11.1094
▁अन्तर	-11.1097
▁सता	-11.1097
किंग	-11.1098
▁मुहूर्त	-11.1099
▁वापिस	-11.1099
▁ho	-11.1105
▁खेलना	-11.1106
रंग	-11.1111
▁जीभ	-11.1112
अन	-11.1113
▁दरों	-11.1115
om	-11.1116
▁Online	-11.1117
▁चुप्पी	-11.1117
▁02	-11.1118
▁लटका	-11.1118
▁कहेंगे	-11.1118
▁मणि	-11.1119
ंदा	-11.1122
▁पीपल	-11.1124
▁बापू	-11.1126
▁चौराहे	-11.1126
▁क्रमश	-11.1128
ack	-11.1129
▁रोमांचक	-11.113
▁वाटर	-11.1132
▁प्रोसेसर	-11.1133
▁मिड	-11.1135
▁कंगना	-11.1135
▁सस्ती	-11.1137
▁अन्न	-11.1139
▁मौलाना	-11.1145
▁तरक्की	-11.1145
▁स्पोर्ट्स	-11.1148
▁अनुपम	-11.115
ादि	-11.1152
▁धनराशि	-11.1154
▁दुकानदार	-11.1156
▁पड़ोस	-11.1158
▁गयीं	-11.1158
▁एं	-11.1163
▁व्यर्थ	-11.1163
त्ता	-11.1169
88	-11.117
क्ट	-11.1172
▁चाँद	-11.1176
▁भयंकर	-11.1181
▁एकत्र	-11.1188
प्ट	-11.119
▁परिश्रम	-11.1191
▁ra	-11.1193
▁पटरी	-11.1194
▁विगत	-11.1194
▁62	-11.1199
▁आवंटित	-11.12
तों	-11.12
▁अभय	-11.1201
▁एकत्रित	-11.1202
▁नौकरियों	-11.1203
▁खाएं	-11.1204
▁संज्ञान	-11.1207
▁हार्मोन	-11.1209
▁शासकीय	-11.1211
▁प्रतिनिधियों	-11.1212
▁उद्	-11.1212
▁किसे	-11.1215
ियल	-11.1215
भाषा	-11.1216
ोड	-11.1217
▁शिक्षित	-11.1218
लै	-11.1221
कालीन	-11.1221
▁Rs	-11.1222
▁नंद	-11.1222
▁जीना	-11.1223
▁एकादशी	-11.1224
रियों	-11.1225
▁पहुंचते	-11.1232
▁कुलपति	-11.1233
▁झगड़ा	-11.1233
▁शै	-11.1236
▁महिमा	-11.1236
▁एप्पल	-11.1237
41	-11.1237
सिस	-11.1238
▁छि	-11.1238
93	-11.1238
▁73	-11.1239
▁ओह	-11.1244
▁नाश	-11.1245
र्च	-11.1249
भाजपा	-11.1249
▁कुशवाहा	-11.125
▁छापा	-11.1255
▁क्षति	-11.1255
▁दिव्यांग	-11.1257
▁71	-11.1258
▁इनाम	-11.1258
▁नाच	-11.1258
78	-11.1258
▁व्यापारिक	-11.1262
▁रूक	-11.1263
केट	-11.1263
▁फौज	-11.1267
▁मोती	-11.1268
▁निशाने	-11.127
▁शिरकत	-11.1273
▁चिकित्सकों	-11.1274
राय	-11.1275
▁सुधर	-11.1278
▁महामंत्री	-11.1283
हां	-11.1284
▁परवाह	-11.1285
▁57	-11.1286
▁टैग	-11.1291
▁सामुदायिक	-11.1292
▁आवश्यकताओं	-11.1297
▁क्वार्टर	-11.1298
▁अपनाया	-11.1299
ड्स	-11.13
▁दुर्भाग्य	-11.13
▁क्वालिटी	-11.1301
▁शास्त्रों	-11.1301
▁प्रीति	-11.1303
▁तेरा	-11.1307
nic	-11.1309
▁कार्यकारिणी	-11.131
▁कैटरीना	-11.131
▁डेस्कटॉप	-11.1311
▁कैप	-11.1311
▁सातवें	-11.1312
कर्ताओं	-11.1318
▁हरीश	-11.1319
▁शिल्पा	-11.132
▁फर्स्ट	-11.1321
▁ग्र	-11.1322
▁सहकारी	-11.1323
सभा	-11.1329
साई	-11.1329
▁मुजफ्फरपुर	-11.1329
▁अनजान	-11.1334
▁कैलोरी	-11.1338
▁परिवेश	-11.1339
▁भि	-11.134
gu	-11.1341
▁ब्लाग	-11.1344
▁जवाहर	-11.1347
▁रेसिपी	-11.1348
▁असंभव	-11.1349
▁आयरन	-11.1349
▁विवश	-11.1349
▁8.	-11.1349
▁फ्लोर	-11.1351
▁पालक	-11.1352
ner	-11.1353
ासन	-11.1354
▁स्टेप	-11.1356
▁व्याप्त	-11.1357
▁उमा	-11.1357
▁पासवान	-11.1357
▁पढाई	-11.136
पाठ	-11.1365
▁खनिज	-11.1366
▁शिवलिंग	-11.1369
▁सूबे	-11.1374
▁प्रोफाइल	-11.1376
▁स्टूडियो	-11.1376
▁कुचल	-11.1378
▁पांचवें	-11.1381
▁भीम	-11.1381
▁डोर	-11.1384
▁बौद्धिक	-11.1387
्रो	-11.1388
▁दीं	-11.1391
▁द्विआधारी	-11.1394
▁अहंकार	-11.1394
▁टैंक	-11.1401
AL	-11.1404
57	-11.1404
▁सलाम	-11.1405
▁प्राचार्य	-11.1405
▁समन्वय	-11.1407
▁बीती	-11.1407
▁Ro	-11.1412
▁स्वचालित	-11.1413
▁वसूल	-11.1414
▁रॉ	-11.1414
ँग	-11.1415
▁तैर	-11.1418
ंसी	-11.142
▁प्रेमिका	-11.142
62	-11.1423
▁बाते	-11.1431
▁किंग	-11.1432
ोली	-11.1435
▁मेजबान	-11.1437
एनएस	-11.1438
▁63	-11.144
▁दू	-11.1442
▁कारखाने	-11.1443
शो	-11.1444
देन	-11.1447
▁आक्रोश	-11.1448
▁कम्युनिस्ट	-11.1451
▁बची	-11.1452
▁विंडोज	-11.1454
▁बग	-11.1454
69	-11.1455
do	-11.1456
▁बलि	-11.1457
▁वसा	-11.1458
▁कफ	-11.1458
▁एंड्रॉयड	-11.146
▁नींव	-11.1461
▁यूपीए	-11.1462
म्बा	-11.1466
▁as	-11.1466
▁सोते	-11.1466
▁छोर	-11.1467
▁उपासना	-11.147
▁le	-11.147
▁सौरभ	-11.1471
स्य	-11.1477
▁मुर्	-11.1477
ik	-11.1477
▁जगा	-11.1478
ide	-11.1478
िप	-11.1479
न्द्र	-11.1481
▁उपेक्षा	-11.1488
▁कदर	-11.1491
▁रेटिंग	-11.1497
▁पुलिसकर्मी	-11.1498
▁सम्बन्धी	-11.1508
▁कोने	-11.1511
▁मोक्ष	-11.1511
▁Ke	-11.1513
▁बस्तर	-11.1519
▁बौ	-11.1521
ect	-11.1521
▁Le	-11.1521
ऊँ	-11.1531
▁रिश्तेदारों	-11.1534
▁संभाग	-11.1538
▁समीर	-11.154
▁गंध	-11.154
ेक्स	-11.1543
▁बैर	-11.1543
▁लग्न	-11.1544
▁Be	-11.1546
▁एक्टिव	-11.1546
▁महंगी	-11.1547
▁वर्षो	-11.155
▁प्रिंस	-11.1551
▁मसलन	-11.1558
▁बिता	-11.1558
▁रहीम	-11.1559
▁टुडे	-11.1565
AR	-11.1565
▁संग्रहालय	-11.1565
▁ओबीसी	-11.1566
विन	-11.1567
भू	-11.1567
▁लगेगी	-11.157
▁बदनाम	-11.157
ाज	-11.1573
▁जैक	-11.1574
▁प्रमोद	-11.1574
▁कलेक्शन	-11.1575
▁कैम	-11.1576
▁दांतों	-11.1579
ाचार्य	-11.1579
▁ढा	-11.1581
▁सूखा	-11.1583
्प	-11.1583
▁Blog	-11.1584
ण्ट	-11.1585
धू	-11.1591
▁फैन्स	-11.1592
▁नीले	-11.1593
▁घोड़े	-11.1593
▁पलायन	-11.1594
▁पते	-11.1596
श्वर	-11.1596
▁चतुर्थी	-11.1597
▁दलील	-11.1597
▁वैकल्पिक	-11.1603
▁सियासत	-11.1603
▁छक्के	-11.1603
▁रचनाओं	-11.1605
▁रहित	-11.1605
▁पेशाब	-11.1606
कर्मी	-11.1609
हरे	-11.1609
▁ग्यारह	-11.1612
▁संशोधित	-11.1612
▁सिलेंडर	-11.1612
▁लेखा	-11.1614
कन	-11.1615
kar	-11.1618
्यो	-11.1618
▁यूएस	-11.162
▁बल्लेबाजों	-11.1621
▁बकाया	-11.1622
▁सैलरी	-11.1623
▁गुहार	-11.1626
▁पंक्ति	-11.163
मित	-11.163
▁अपितु	-11.1631
▁नारेबाजी	-11.1632
▁संयम	-11.1632
▁घाव	-11.1633
▁दिलाई	-11.1636
कृत	-11.1637
▁महर्षि	-11.1641
▁चुनने	-11.1642
▁बोलना	-11.1646
▁from	-11.1651
▁उल्टा	-11.1651
ण्डा	-11.1652
▁Exam	-11.1653
▁मेजर	-11.1653
▁सीने	-11.1654
▁लोड	-11.1654
▁किम	-11.1654
▁आयाम	-11.1657
कता	-11.1657
बरा	-11.1658
▁शिफ्ट	-11.1661
▁महासभा	-11.1661
mer	-11.1665
्मी	-11.1668
83	-11.1669
▁हत्याकांड	-11.1671
▁मुस्कुरा	-11.1674
▁सुंदरता	-11.1676
▁69	-11.1681
▁सेकेंड	-11.1687
▁ब्यूटी	-11.1688
▁चेन	-11.1688
▁दुर्लभ	-11.1689
res	-11.169
port	-11.169
▁यूज	-11.1694
र्त	-11.1694
▁कलाम	-11.1699
lic	-11.1705
▁दिखाता	-11.1706
▁बहा	-11.1706
▁पीसकर	-11.1707
▁तस्करी	-11.1708
▁फ्लिपकार्ट	-11.1708
▁मिथुन	-11.1708
▁बदलना	-11.171
गुण	-11.1711
iv	-11.1711
▁साधक	-11.1713
▁हावी	-11.1716
▁मानती	-11.1717
▁झड़	-11.172
किया	-11.1722
▁09	-11.1723
▁सदस्यीय	-11.1724
▁नेपाली	-11.1726
▁महंगे	-11.1729
▁सद	-11.1731
▁सवारी	-11.1734
▁रचनात्मक	-11.1737
चंद्र	-11.1737
▁बुलंद	-11.1739
▁जात	-11.1743
mi	-11.1744
▁चुनौतियों	-11.1747
▁प्रगतिशील	-11.1747
▁कहलाता	-11.1747
▁गोविंद	-11.1748
▁जजों	-11.1751
ांतर	-11.1754
▁राजनेता	-11.1754
वर्	-11.1756
▁वालो	-11.1758
▁प्यारे	-11.1758
▁पश्चात्	-11.1759
▁इल	-11.176
स्थान	-11.1762
जीवन	-11.1765
▁बढ़ाना	-11.1766
▁चंद्रशेखर	-11.1767
▁उतारने	-11.177
हत	-11.1771
▁बचाओ	-11.1771
▁प्रसन्नता	-11.1772
▁बदलकर	-11.1773
▁वोटों	-11.1774
▁सीडी	-11.1775
▁फ़ा	-11.1775
▁विनाश	-11.1776
▁महानिदेशक	-11.1776
▁हज़रत	-11.1776
▁बनायी	-11.1776
▁एयरटेल	-11.1777
53	-11.1778
▁तुमसे	-11.1782
da	-11.1783
▁उग	-11.1783
▁नगरी	-11.1784
ैंड	-11.1787
बन	-11.1787
bi	-11.179
▁हीरा	-11.1793
▁अंगों	-11.1793
▁डायरेक्ट	-11.1794
▁बिछा	-11.1796
▁उत्पत्ति	-11.1796
▁कॉफी	-11.1796
▁फाड़	-11.1799
▁अतुल	-11.1799
लेस	-11.1801
▁सिंगर	-11.1804
फो	-11.1806
ran	-11.1807
▁दरें	-11.1809
sk	-11.181
▁sh	-11.1813
▁आदर	-11.1814
▁आमदनी	-11.1815
▁रोबोट	-11.1815
▁जीवनसाथी	-11.1815
कत	-11.182
▁कब्ज	-11.1825
▁बाहुबली	-11.1825
थे	-11.1828
▁गूंज	-11.183
▁ब्लॉगर	-11.1832
▁नौकर	-11.1833
सिक	-11.1833
▁महत्त्व	-11.1834
▁मंजूर	-11.1835
▁अंधेरे	-11.1835
▁खासी	-11.1836
▁रंगीन	-11.1837
▁उनपर	-11.1839
▁सेल्स	-11.1842
▁हस्तमैथुन	-11.1845
▁स्ट्राइक	-11.1845
▁शर्ट	-11.1845
▁पावन	-11.1846
▁सिंधिया	-11.1846
भूत	-11.1848
▁पड़ताल	-11.1852
्मा	-11.1852
-12	-11.1853
▁मिलन	-11.1853
▁अब्बास	-11.1855
▁खर	-11.1856
चीन	-11.1858
▁भरकर	-11.186
्रे	-11.1862
▁संयंत्र	-11.1865
▁बवाल	-11.1869
▁लोहे	-11.1872
ary	-11.1872
▁कनेक्ट	-11.1874
ld	-11.1874
▁संतुलित	-11.1874
▁वाम	-11.1874
नुमा	-11.1875
▁पैरा	-11.1879
जिस	-11.188
तार	-11.1883
94	-11.1883
चू	-11.1883
▁ज़रा	-11.1883
▁जदयू	-11.1884
▁इसमे	-11.1885
भ्र	-11.1891
▁श्रद्धालु	-11.1892
▁दमन	-11.1899
यम	-11.19
▁अलीगढ़	-11.1908
सह	-11.1908
▁कलश	-11.1908
बिन	-11.191
वश	-11.1911
वाड़ा	-11.1912
▁चतुर्वेदी	-11.1913
▁पुरोहित	-11.1914
▁शर्तों	-11.1914
▁हटाया	-11.1917
बुक	-11.1919
▁तरल	-11.1919
91	-11.1919
▁फ़ाइल	-11.192
▁बचाया	-11.192
▁निगाह	-11.1921
पक्ष	-11.1921
ाती	-11.1921
▁Si	-11.1922
▁गोरा	-11.1922
▁घटनाक्रम	-11.1928
▁निरस्त	-11.1929
श्य	-11.1929
▁वर्जन	-11.1932
▁तादाद	-11.1933
डेंट	-11.1934
▁रिया	-11.1937
▁नवरात्र	-11.1939
▁फ्र	-11.194
▁कराये	-11.1942
वर्ग	-11.1943
▁त्वरित	-11.1943
पेट	-11.1943
▁Story	-11.1943
▁सफलतापूर्वक	-11.1946
▁गणपति	-11.1947
▁जलाने	-11.1948
▁वीजा	-11.1948
▁खट	-11.195
tt	-11.1951
▁अकेली	-11.1953
▁गणतंत्र	-11.1953
▁बसा	-11.1954
▁मिटा	-11.1955
▁प्रतिबद्धता	-11.1957
▁आराधना	-11.1963
▁भुवनेश्वर	-11.1973
▁फेस्टिवल	-11.1976
▁आभूषण	-11.198
▁काटकर	-11.1986
▁बनेंगे	-11.1991
87	-11.1992
▁मुस्कान	-11.1993
▁एडमिशन	-11.1993
▁पह	-11.1993
▁बाध्य	-11.1994
बर्ग	-11.2
▁95	-11.2001
धाम	-11.2001
▁शुक्रिया	-11.2002
▁इज्जत	-11.2003
▁प्रतिस्पर्धा	-11.2003
▁एलान	-11.2004
▁ग्रस्त	-11.2004
▁साकार	-11.201
▁हिम	-11.2011
▁बेरोजगारी	-11.2012
▁सर्दियों	-11.2014
बीसी	-11.2014
ेस्ट	-11.2016
ाइट	-11.2018
छात्राओं	-11.2021
▁चैलेंज	-11.2021
ER	-11.2022
▁मलेशिया	-11.2023
▁विरूद्ध	-11.2023
र्प	-11.2023
ja	-11.2023
▁प्रोडक्ट्स	-11.2028
दल	-11.2028
जगह	-11.2032
▁सुरक्षाबलों	-11.2033
▁जैविक	-11.2036
▁निकासी	-11.2039
वरी	-11.204
▁बनेगी	-11.2043
▁घुमा	-11.2049
सिल	-11.205
▁दमदार	-11.2051
▁पुस्तकों	-11.2051
लम	-11.2051
▁मोहल्ले	-11.2053
▁निबंध	-11.2054
मार्ग	-11.2059
rat	-11.206
▁ब्राजील	-11.2063
▁आसाराम	-11.2064
जाल	-11.2066
▁झूठे	-11.2067
▁साहेब	-11.2072
▁कण	-11.2081
▁जानकारियां	-11.2084
▁66	-11.2085
▁स्टेज	-11.2086
▁Website	-11.2093
▁भारद्वाज	-11.2093
▁मुर्गा	-11.2094
ीट	-11.2096
▁मेगापिक्सल	-11.2098
▁बैच	-11.2098
▁चौके	-11.2106
▁पांव	-11.2106
▁Ta	-11.2106
▁पढने	-11.2106
ms	-11.2108
IT	-11.2108
▁बर्दाश्त	-11.2113
▁करवाना	-11.2113
▁गल	-11.2113
▁विश्वविद्यालयों	-11.2114
▁भैंस	-11.2114
▁हमलावर	-11.2118
ग्री	-11.2119
▁tr	-11.212
▁नमाज	-11.2121
▁नमी	-11.2121
▁परत	-11.2121
▁निभाया	-11.2121
ट्ठ	-11.2123
▁मस	-11.2123
▁घुटने	-11.2124
▁कप्तानी	-11.2125
▁स्पेन	-11.2131
▁जुड़ने	-11.2131
▁सिक्योरिटी	-11.2133
▁सचिवालय	-11.2135
▁हार्ड	-11.2135
▁रूख	-11.2137
▁2018-19	-11.2137
▁वध	-11.2137
▁देशी	-11.2143
▁ग्राउंड	-11.2143
▁विमल	-11.2145
ेय	-11.2146
▁ईयर	-11.2146
▁तलाशी	-11.2147
▁नकार	-11.2147
रोग	-11.2147
ाचार	-11.2152
▁नर्स	-11.2152
▁मोर्चे	-11.2153
▁तालिबान	-11.2153
▁आईसीसी	-11.2154
फुल	-11.2154
▁पहुँचने	-11.2155
▁सज	-11.2161
▁शॉ	-11.2162
तंत्र	-11.2163
▁उपरांत	-11.2164
▁एडल्ट	-11.2164
77	-11.2166
▁शत	-11.2171
,500	-11.2179
86	-11.2179
▁पार्किंग	-11.2189
▁विभाजित	-11.2194
▁मज	-11.2195
73	-11.2196
ोव	-11.2198
▁1.5	-11.22
मुख	-11.2206
▁टांग	-11.2206
▁रचा	-11.2207
▁वृद्ध	-11.2212
▁प्रदर्शनी	-11.2212
ंगर	-11.2215
▁अंधेरा	-11.2215
mb	-11.2216
ाओं	-11.2216
▁सिंधु	-11.2216
डीजल	-11.2217
min	-11.2218
▁उत्पादक	-11.2221
▁चिट्ठी	-11.2224
▁डिमांड	-11.2224
▁प्रातः	-11.2225
▁इराक	-11.2227
▁Of	-11.223
धो	-11.2232
▁हड्डी	-11.2234
▁राक्षस	-11.2234
ठे	-11.2241
▁तह	-11.2243
▁78	-11.2244
▁पनीर	-11.2245
und	-11.2247
▁राजी	-11.2248
नल	-11.2248
लाइट	-11.2248
▁......	-11.2249
▁ससुर	-11.2254
▁कमरा	-11.2254
इल	-11.2255
▁मीणा	-11.2256
ग्रह	-11.2256
▁पूर्वोत्तर	-11.2258
▁बोनस	-11.2258
▁पिच	-11.2258
▁रियर	-11.226
▁उच्चारण	-11.2265
▁दांव	-11.2266
ढा	-11.2271
▁परिणामों	-11.2272
▁दुर्	-11.2274
▁पिन	-11.2274
▁विकलांग	-11.2275
▁विपणन	-11.2275
▁सोसाइटी	-11.2275
▁video	-11.2278
sp	-11.2282
▁क्वा	-11.2285
▁नौसेना	-11.2286
▁चाहेंगे	-11.2287
▁गर्ल	-11.229
▁खांसी	-11.2292
ढ़ा	-11.2293
▁घोर	-11.2294
▁कार्यो	-11.2294
ff	-11.2295
महा	-11.2297
▁वोटिंग	-11.2299
▁डै	-11.23
▁चौंकाने	-11.23
74	-11.2301
▁सख्ती	-11.2301
▁not	-11.2305
ाँ	-11.2305
▁मणिपुर	-11.2305
▁साक्ष्य	-11.2306
ग्रस्त	-11.2306
▁आईफोन	-11.2309
▁कोट	-11.231
▁मक	-11.2313
▁वैचारिक	-11.2316
▁प्लेयर	-11.2318
tri	-11.2318
▁२००	-11.2318
कथा	-11.2319
राष्ट्रीय	-11.2319
▁सितारे	-11.2319
▁सन्देश	-11.2328
▁पॉल	-11.2335
ोड़	-11.2335
सीए	-11.2336
▁Recruitment	-11.2337
▁तैनाती	-11.2337
▁बं	-11.2338
▁मनो	-11.2339
▁कस्टम	-11.234
▁चीज़ों	-11.2343
▁दीन	-11.2344
▁झंडा	-11.2345
▁परिचालन	-11.2347
▁पॉपुलर	-11.2347
▁सर्वर	-11.2348
der	-11.2349
ड़ो	-11.2351
ौं	-11.2352
▁तेज़ी	-11.2354
▁सिद्धांतों	-11.2356
▁ऑपरेटर	-11.2356
▁600	-11.2357
▁चमत्कार	-11.2361
▁दामों	-11.2363
▁साँस	-11.2364
▁बंदूक	-11.2366
▁डिलीवरी	-11.2368
▁उद्यान	-11.2368
96	-11.2369
▁मजबूरी	-11.2369
▁उमड़	-11.2371
▁पिट	-11.2372
▁माई	-11.2375
▁बडे	-11.2376
▁जोड़ों	-11.2378
▁लंबित	-11.2378
दिल	-11.2381
▁वैसी	-11.2385
pa	-11.2386
▁चलें	-11.2389
▁पंचायतों	-11.239
▁चादर	-11.239
▁खाकर	-11.2391
▁पेड़ों	-11.2394
▁दिखाना	-11.2398
▁blowjob	-11.2399
▁सोसायटी	-11.2399
प्ले	-11.2407
▁चिदंबरम	-11.2409
▁उत्तराखण्ड	-11.2409
सुन	-11.241
IS	-11.2412
देह	-11.2414
▁आएं	-11.2414
ैत	-11.2416
श्त	-11.2417
▁Go	-11.2418
▁उधार	-11.2418
▁गुर्जर	-11.2419
▁दुबारा	-11.2419
▁अविश्वास	-11.2421
शाह	-11.2421
▁125	-11.2423
▁वाय	-11.2423
▁रहमान	-11.2425
ट्टा	-11.2426
▁संग्राम	-11.2431
▁मानकों	-11.2433
▁बंध	-11.2433
▁चोरों	-11.2446
▁प्रोफेशनल	-11.2447
ीला	-11.2448
▁2001	-11.2449
▁पुजारी	-11.2451
▁एनर्जी	-11.2451
▁उपग्रह	-11.2452
▁प्रयोगशाला	-11.2452
▁बेबी	-11.2455
▁धरने	-11.246
▁विशेषकर	-11.2461
▁संगठित	-11.2461
▁अब्दुल्ला	-11.2461
ँच	-11.2464
िष्ट	-11.2466
▁महतो	-11.2474
▁ख़ान	-11.2476
▁पकड़कर	-11.2477
▁रामलीला	-11.2482
▁समर्पण	-11.2482
▁छोड़ना	-11.2484
▁प्रतियोगी	-11.2485
▁टच	-11.2485
▁डालना	-11.2488
बोर्ड	-11.249
बस	-11.249
▁मॉल	-11.249
ोत्सव	-11.2496
सला	-11.2497
कस	-11.2498
ेन्स	-11.2501
▁चाहत	-11.2502
▁युवराज	-11.2503
▁भावनात्मक	-11.2504
डीए	-11.2504
ीकृत	-11.2505
टिया	-11.2505
▁बदलती	-11.2506
▁Media	-11.2506
▁मिन	-11.2507
▁रगड़	-11.251
▁नौजवान	-11.251
▁पन	-11.2511
▁पक्का	-11.2515
▁he	-11.2516
▁जताते	-11.2518
▁विश	-11.2518
▁कोविंद	-11.2524
▁हास्य	-11.2524
uk	-11.2525
ावली	-11.2526
▁रिकॉर्डिंग	-11.2527
▁विद्वानों	-11.2528
▁दर्शाता	-11.2529
न्ना	-11.2529
टीसी	-11.2529
सुर	-11.253
▁05	-11.2533
भाष	-11.2533
▁बच्चियों	-11.2534
▁स्पीकर	-11.2534
▁पार्टियां	-11.2537
क्षित	-11.2538
79	-11.2543
▁नरम	-11.2543
▁Top	-11.2544
▁पूर्वक	-11.2544
400	-11.2545
▁कांस्य	-11.2545
▁108	-11.255
▁चलाए	-11.2555
▁Android	-11.2555
▁डिप्लोमा	-11.2555
▁तालमेल	-11.2556
▁क्रांतिकारी	-11.2557
ank	-11.2557
king	-11.2557
्ग	-11.256
ीम	-11.256
IN	-11.2561
न्ध	-11.2562
▁बताएंगे	-11.2565
▁एपिसोड	-11.2566
▁स्तंभ	-11.2566
▁गरिमा	-11.2566
छोटी	-11.2567
▁लपेट	-11.2567
▁पेशे	-11.2569
▁लेप	-11.2574
दाता	-11.2586
▁नतीजों	-11.2587
▁पक	-11.2588
▁चाची	-11.2588
▁किन	-11.2589
▁वैध	-11.259
▁उबाल	-11.2591
▁निकलती	-11.2596
▁आंधी	-11.2597
▁अपराधों	-11.26
▁लेगी	-11.2601
▁ठहर	-11.2603
माने	-11.2605
▁ब्य	-11.2607
▁शिवाजी	-11.2608
▁खीर	-11.2608
▁विश्राम	-11.2608
▁वाणिज्य	-11.2612
न्या	-11.2612
मेर	-11.2615
▁hai	-11.2616
▁चिपक	-11.2617
▁x	-11.2618
▁महोदय	-11.2619
▁सईद	-11.2619
▁फैली	-11.2621
▁जनहित	-11.2621
▁आहत	-11.2622
▁नॉन	-11.2622
▁मैक्स	-11.2624
▁अंग्रेज़ी	-11.2625
▁कैल	-11.2628
▁जगन्नाथ	-11.2629
▁नियामक	-11.2629
▁बखूब	-11.2629
▁जंगली	-11.2633
▁प्रभात	-11.2636
मह	-11.2637
▁77	-11.2637
▁पीते	-11.2638
art	-11.2639
▁मिमी	-11.2639
▁गण	-11.2639
▁मर्यादा	-11.264
▁वगैरह	-11.264
प्रिय	-11.2641
▁तहसीलदार	-11.2648
ेटर	-11.2649
जित	-11.2649
92	-11.2649
▁संधि	-11.265
▁महागठबंधन	-11.265
▁घटाने	-11.2651
▁रिंग	-11.2653
खु	-11.2654
ies	-11.2656
▁तीर	-11.2658
▁परहेज	-11.2663
▁कवियों	-11.2668
ानु	-11.2668
▁रामपुर	-11.2669
▁ट्रा	-11.267
ian	-11.267
▁सर्टिफिकेट	-11.2672
▁समकक्ष	-11.2672
▁गायत्री	-11.2672
▁रिपोर्टर	-11.2674
ड्ड	-11.2675
▁सुधीर	-11.2676
▁un	-11.2676
त्ती	-11.2679
▁वर्	-11.2681
▁मज़बूत	-11.2682
▁गि	-11.2683
इं	-11.2684
▁एशियन	-11.2684
पुरुष	-11.2685
▁प्यारी	-11.2688
ten	-11.269
▁(1	-11.269
▁युगल	-11.2691
▁निर्दोष	-11.2693
▁कश्मीरी	-11.2696
▁कतार	-11.2697
▁नवरात्रि	-11.2698
विक	-11.2698
▁महक	-11.2701
▁समाप्ति	-11.2702
▁ऑक्सीजन	-11.2704
▁प्रशिक्षित	-11.2704
▁प्रतिभागियों	-11.2705
▁इलाका	-11.2706
▁आईआईटी	-11.2706
▁an	-11.2707
शिया	-11.2709
ach	-11.2712
▁बैडमिंटन	-11.2714
▁मोहित	-11.2715
▁अशुभ	-11.2715
्थ	-11.2716
▁ताप	-11.2719
▁तुला	-11.2719
एमसी	-11.2723
▁इसपर	-11.2724
▁हँस	-11.2727
▁जनसभा	-11.2727
▁61	-11.2727
▁उपदेश	-11.2729
ाें	-11.2729
लेज	-11.2735
▁800	-11.2736
▁विवेकानंद	-11.2737
बंध	-11.2737
ster	-11.2739
▁नागर	-11.2746
सीएल	-11.2747
ani	-11.2748
▁दुकानें	-11.2756
सरा	-11.2759
▁रुके	-11.276
▁आएंगी	-11.2766
ेन्ट	-11.2768
▁मानस	-11.277
▁74	-11.2775
▁टोल	-11.2776
▁प्रजा	-11.2777
▁बहिष्कार	-11.2779
▁उसपर	-11.2779
▁मजे	-11.2779
▁2.5	-11.2782
▁हस्त	-11.2783
▁१२	-11.2784
▁--	-11.2787
▁उर्जा	-11.279
▁कचरा	-11.2791
▁खुशबू	-11.2792
▁1998	-11.2792
06	-11.2794
▁चैक	-11.2795
ंदे	-11.28
▁ग्ल	-11.28
▁सजावट	-11.2802
▁लाते	-11.2806
▁मशीनों	-11.2807
▁सतत	-11.2808
▁जेट	-11.2812
▁मुकाम	-11.2813
▁विधवा	-11.2813
ल्ले	-11.2816
▁दोषियों	-11.2818
▁व्यतीत	-11.2822
sion	-11.2824
▁लाइक	-11.2826
▁ऊंचा	-11.2828
▁ठग	-11.2829
▁माथे	-11.2834
▁संजू	-11.2835
▁विल	-11.2835
news	-11.2835
▁क्यूँ	-11.2835
ुत	-11.2836
▁परिणामस्वरूप	-11.2844
▁लाठी	-11.2846
▁बॉ	-11.2847
▁बढ़ाते	-11.2853
▁November	-11.2854
▁Singh	-11.2854
▁छठे	-11.2856
▁निकलकर	-11.2856
▁मुन	-11.2856
▁बां	-11.2858
▁Ko	-11.2859
्च	-11.2864
▁आर्	-11.2864
वट	-11.2866
▁98	-11.2866
▁स्पा	-11.2875
▁हक़	-11.2875
▁हेक्टेयर	-11.2876
▁जख्मी	-11.2876
▁देन	-11.288
ुअल	-11.2881
▁it	-11.2887
▁तपस्या	-11.2887
▁हाजिर	-11.2887
▁जेम्स	-11.2888
▁हालिया	-11.2895
अनु	-11.2895
▁हेम	-11.2898
▁अत्यन्त	-11.2898
▁76	-11.2898
▁फिसल	-11.2898
▁जुडी	-11.2898
▁प्रायः	-11.2899
▁गै	-11.29
▁शौच	-11.29
mit	-11.29
▁स्पिनर	-11.2901
▁वाक	-11.2901
पक	-11.2905
प्रीत	-11.2905
वर्ती	-11.2907
▁विज्ञप्ति	-11.2909
▁महानगर	-11.2909
ord	-11.2912
▁आंत	-11.2915
▁तंज	-11.2916
ौन	-11.2918
▁इन्टरनेट	-11.2919
▁आरक्षित	-11.2921
▁अकसर	-11.2921
ali	-11.2921
▁हमको	-11.2924
▁नाबाद	-11.2924
ंटी	-11.2925
इसके	-11.2926
▁आवासीय	-11.2927
▁आपातकाल	-11.293
▁ढांचे	-11.293
▁वीरेंद्र	-11.2932
▁गन्ना	-11.2932
▁1947	-11.2933
▁गधा	-11.2934
▁पेरिस	-11.2936
कुर	-11.2938
end	-11.294
▁बाधित	-11.2941
ug	-11.2942
▁this	-11.2942
▁कमज़ोर	-11.2944
ंजी	-11.2944
▁गर्ग	-11.2944
▁यादगार	-11.2945
▁प्रवास	-11.295
▁ढाल	-11.2951
शंकर	-11.2952
▁भोज	-11.2952
मंत्री	-11.2952
▁चौटाला	-11.2952
▁मालिकों	-11.2952
▁साप्ताहिक	-11.2955
▁केमिकल	-11.2955
▁मूत्र	-11.2957
esh	-11.2957
िफ	-11.2959
▁su	-11.2962
▁दिखाकर	-11.2962
▁गोला	-11.2964
▁Card	-11.2968
ell	-11.2972
▁स्ट्रीट	-11.2974
▁कमांडर	-11.2977
▁देवेंद्र	-11.2978
▁क्रिस	-11.298
▁गहलोत	-11.2985
▁डीसी	-11.2986
▁गुरुग्राम	-11.2987
▁दिखते	-11.2995
▁हौ	-11.2995
▁गेंदबाजों	-11.2996
▁अनदेखी	-11.2996
▁धनतेरस	-11.2996
▁पराजित	-11.2996
▁लॉक	-11.2997
▁बनाम	-11.2997
▁08	-11.2998
IC	-11.2998
▁मेयर	-11.2999
▁आईएस	-11.2999
वीन	-11.2999
▁मौज	-11.3002
▁उतरी	-11.3002
वॉ	-11.3003
▁जौनपुर	-11.3005
▁अवसाद	-11.3007
▁खासा	-11.3008
▁पहुच	-11.3009
▁नमाज़	-11.3011
▁दीवारों	-11.3015
▁दुरुपयोग	-11.3018
▁परस्पर	-11.3019
िस्तान	-11.3019
▁सलामी	-11.3024
▁केबल	-11.3027
▁ध्रुव	-11.3029
▁ईवीएम	-11.3029
▁स्कूटर	-11.3029
▁बिगाड़	-11.303
▁कपल	-11.3032
चन	-11.3033
▁पारा	-11.3035
देख	-11.3037
ोह	-11.3037
ST	-11.3038
▁xxx	-11.3039
▁आला	-11.304
▁दस्त	-11.3041
बड़ी	-11.3045
▁चूका	-11.3045
▁वैन	-11.3049
टिव	-11.3049
▁हाफ	-11.3051
▁हिंदुत्व	-11.3052
▁इस्लामाबाद	-11.3053
▁जैव	-11.3054
फोन	-11.3054
टेल	-11.306
▁मांसपेशियों	-11.3062
▁बाव	-11.3065
न्य	-11.3069
▁पौधा	-11.3069
go	-11.3072
व्यवस्था	-11.3072
▁रुझान	-11.3073
▁जता	-11.3075
तिया	-11.3077
▁वर्णित	-11.3078
ore	-11.3079
पिंग	-11.308
▁सज़ा	-11.308
▁रास	-11.3081
क्री	-11.3081
cc	-11.3081
▁झु	-11.3082
ल्फ	-11.3082
▁स्थिरता	-11.3083
▁जीती	-11.3084
▁पसीना	-11.3085
▁ईसा	-11.3085
▁दिलों	-11.3086
▁आईपीएस	-11.3089
▁ट्रोल	-11.309
▁सतर्क	-11.3097
▁मुगल	-11.3098
gov	-11.3099
▁माप	-11.31
षण	-11.3103
ph	-11.3106
▁आश्वस्त	-11.3107
▁निर्णायक	-11.3107
▁बहाना	-11.3107
▁सम्भावना	-11.3107
▁विश्वसनीय	-11.3107
▁मीठा	-11.3108
▁भविष्यवाणी	-11.3108
▁सिक्के	-11.3108
▁कपडे	-11.3108
श्च	-11.3108
िज्म	-11.3109
▁नहाने	-11.3115
्वी	-11.3116
▁किंग्स	-11.3117
▁धोने	-11.3119
▁स्टेशनों	-11.3122
▁नहा	-11.3123
?"	-11.3125
▁जायजा	-11.3126
▁कांफ्रेंस	-11.3129
▁इरफान	-11.3129
▁निष्ठा	-11.3129
▁क्रि	-11.3129
300	-11.313
कार्य	-11.3131
▁स्टार्ट	-11.3133
▁वश	-11.3134
▁उल	-11.3136
▁नैतिकता	-11.3137
▁रहेंगी	-11.3137
▁नकद	-11.3138
▁इरादा	-11.3141
मेरे	-11.3142
1)	-11.3144
नार	-11.3145
tal	-11.3146
खण्ड	-11.3148
▁सुलझाने	-11.3148
वादियों	-11.3149
▁फोरम	-11.3151
▁कन्हैया	-11.3151
▁पप्पू	-11.3151
▁इनेलो	-11.3152
ख्या	-11.3153
▁डिस	-11.3155
▁कठिनाई	-11.3156
▁खुलने	-11.3156
ध्द	-11.3158
माता	-11.3158
▁कैन	-11.3161
▁Rating	-11.3163
ाधिकारी	-11.3165
दूर	-11.3165
bo	-11.3166
स्टार	-11.3167
▁आजम	-11.3169
▁२०	-11.3171
▁स्थानांतरित	-11.3174
▁ब्रज	-11.3177
▁बंधक	-11.3177
▁पीला	-11.3179
▁निर्देशों	-11.3184
▁दशहरा	-11.3185
▁आटा	-11.3186
वारा	-11.3187
▁आँ	-11.3187
जीव	-11.3187
▁सम्बंध	-11.3194
▁त्रुटि	-11.3195
उल	-11.3195
▁वैवाहिक	-11.3196
▁समकालीन	-11.3197
▁पीटा	-11.3197
क़ा	-11.3202
▁चिकन	-11.3204
फ्ट	-11.3204
िकी	-11.3204
▁क्रॉस	-11.3208
▁परंपरागत	-11.3208
क्ति	-11.3213
▁प्रभार	-11.3214
▁महाराजा	-11.3214
▁खरीदना	-11.3215
▁स्पॉट	-11.3219
▁भग	-11.3221
ust	-11.3222
▁विद	-11.3228
▁फेक	-11.3228
▁भंसाली	-11.323
▁अख्तर	-11.323
▁तै	-11.323
▁सीबीएसई	-11.3231
▁अवसरों	-11.3232
्ती	-11.3235
▁ईंट	-11.3235
▁टूल	-11.3236
mm	-11.3238
▁06	-11.3239
▁आइडिया	-11.3242
▁रेशम	-11.3242
सेवा	-11.3246
विज्ञान	-11.3248
▁मेँ	-11.3248
▁स्वरुप	-11.3252
▁शेट्टी	-11.3252
▁सर्वप्रथम	-11.3252
▁चाहने	-11.3253
▁नेताजी	-11.3254
ौरी	-11.3255
विद	-11.3257
▁संगत	-11.3258
▁जिद	-11.3258
ंबर	-11.3263
▁ठाकरे	-11.3264
▁महासागर	-11.3264
▁सितारों	-11.3271
bha	-11.3271
▁अर्जी	-11.3273
▁नैनीताल	-11.3275
▁शॉर्ट	-11.3276
दम	-11.328
▁यथा	-11.3281
▁लोकार्पण	-11.3286
▁श्लोक	-11.3286
▁आव	-11.3287
▁प्रेमचंद	-11.3287
▁फैट	-11.329
वेट	-11.3291
▁हाय	-11.3291
▁लगाव	-11.3291
▁विद्रोह	-11.3293
मणि	-11.3294
▁संक्षिप्त	-11.3298
▁असमर्थ	-11.3299
▁अंतराल	-11.33
▁डाइ	-11.3301
nu	-11.3302
▁डायरी	-11.3302
▁समुदायों	-11.3302
▁04	-11.3304
▁सन्दर्भ	-11.3309
▁दखल	-11.3309
▁प्रमाणपत्र	-11.3311
ऊंगा	-11.3315
gar	-11.3315
धु	-11.3316
▁पढ़ाने	-11.3317
डु	-11.3317
81	-11.3318
▁जिया	-11.332
▁फलस्वरूप	-11.3321
▁भिड़	-11.3326
वंत	-11.3329
▁विन	-11.3331
▁एनजीओ	-11.3332
▁व्यवस्थित	-11.3332
ंती	-11.3332
▁कर्क	-11.3332
▁खासियत	-11.3335
▁मनाते	-11.3336
▁विज	-11.3336
▁बाकि	-11.3337
▁अपन	-11.3337
▁विलय	-11.3338
▁दब	-11.334
▁बैठते	-11.3341
▁चह	-11.3341
▁1990	-11.3343
▁एट	-11.3343
▁प्रिंसिपल	-11.3343
▁लत	-11.3344
िला	-11.3347
ंदर	-11.3349
▁घोष	-11.3349
▁पहुँचे	-11.3349
08	-11.335
शाम	-11.335
▁छानबीन	-11.3354
▁मोहब्बत	-11.3354
▁संबोधन	-11.3354
▁आयत	-11.3356
▁पहाड़ों	-11.3357
रूम	-11.3359
ैर	-11.3362
▁उठते	-11.3363
▁उपाधि	-11.3364
▁वायुसेना	-11.3366
▁ख़रीद	-11.3368
▁वेट	-11.3369
sc	-11.3373
ोला	-11.3373
▁ईस्ट	-11.3374
▁कैट	-11.3375
▁सीमाओं	-11.3375
▁होस्ट	-11.3376
यक	-11.3376
▁सुनना	-11.3376
किसी	-11.3377
▁Par	-11.3377
▁गेस्ट	-11.3378
▁सभागार	-11.3379
▁जं	-11.338
▁Ar	-11.338
▁com	-11.3381
▁मिश्रित	-11.3387
▁लगेंगे	-11.3387
▁ट्रम्प	-11.3389
▁परिपक्व	-11.339
▁07	-11.3391
▁सहयोगियों	-11.3392
▁Health	-11.3392
▁होंठ	-11.3395
▁बुद्धिमान	-11.34
▁विकार	-11.34
▁दूरसंचार	-11.34
▁इजरायल	-11.34
▁संयोजन	-11.3401
▁Ha	-11.3404
प्रसाद	-11.3406
दायक	-11.3408
▁बाला	-11.341
हाँ	-11.3411
▁Kar	-11.3416
▁प्राय	-11.3421
▁टैक्सी	-11.3422
▁पत्तियों	-11.3423
▁हड़कंप	-11.3423
▁नल	-11.3426
सिटी	-11.3428
▁HD	-11.3429
▁नरक	-11.343
गिरी	-11.3434
▁गुरूवार	-11.3437
▁खपत	-11.3437
▁लैंड	-11.3442
▁माय	-11.3445
▁दोस्तो	-11.3446
▁प्रॉब्लम	-11.3446
▁स्क्रिप्ट	-11.3446
▁बैलेंस	-11.3447
▁मोटापा	-11.3447
दिया	-11.3453
▁उलझ	-11.3453
▁अनुभवों	-11.3457
▁यशवंत	-11.3458
▁आइटम	-11.3458
▁रण	-11.3458
▁शैतान	-11.3458
▁लोकेशन	-11.3458
▁शेखर	-11.3458
▁सूख	-11.3459
▁कच्चा	-11.3459
ड़िया	-11.3461
▁फेमस	-11.3462
▁अग्र	-11.3468
विदेश	-11.3469
▁तृणमूल	-11.3469
डल	-11.347
▁पहनकर	-11.3471
▁बुर	-11.3472
▁धनी	-11.3477
MA	-11.3477
▁जुबान	-11.3478
▁पुस्तकें	-11.3478
2017	-11.3479
▁लिफ्ट	-11.348
▁लहरा	-11.348
▁शर्मनाक	-11.3481
▁परिक्रमा	-11.3481
▁दृढ़	-11.3495
▁जमी	-11.3495
▁खोलकर	-11.3496
▁समर	-11.3496
दारों	-11.3499
ंठ	-11.3502
▁अप्लाई	-11.3504
▁अर्धशतक	-11.3504
▁जाह्नवी	-11.3504
▁सुकून	-11.3504
▁पकड	-11.3505
▁मंशा	-11.3505
मां	-11.3506
लिस	-11.3507
▁आजमा	-11.3508
▁लाये	-11.3508
▁बयानों	-11.351
▁पॉप	-11.3511
▁समुचित	-11.3515
▁टुकड़ा	-11.3516
▁शुमार	-11.3516
▁प्राथमिकी	-11.3517
au	-11.3517
्दी	-11.3524
डॉ	-11.3525
▁क़ानून	-11.3526
▁रैंक	-11.3528
▁विदाई	-11.3533
▁Day	-11.3534
▁दस्तक	-11.3536
▁कहावत	-11.3537
▁ग़लत	-11.3538
▁ह्रदय	-11.3538
देवी	-11.3538
▁आपूर्तिकर्ताओं	-11.3541
▁लैब	-11.3542
▁गुजार	-11.3545
500	-11.3545
ीज़	-11.3546
▁मरे	-11.3549
▁कवायद	-11.355
▁आशुतोष	-11.355
इये	-11.355
▁कुत्ता	-11.3551
▁नवाब	-11.3554
▁बडा	-11.3555
▁सिया	-11.3557
▁मेने	-11.3558
▁अभिभावकों	-11.356
▁श्यामला	-11.356
▁टेली	-11.3561
aj	-11.3561
▁उत्तीर्ण	-11.3562
▁सर्वोत्तम	-11.3562
▁बताकर	-11.3562
▁कालोनी	-11.3562
▁(2)	-11.3562
▁00	-11.3565
ाकार	-11.3566
▁अधिकृत	-11.3568
कल्प	-11.3568
▁रामनाथ	-11.3569
▁मिस्र	-11.357
▁बारात	-11.3571
▁कटा	-11.3572
▁चीज़ें	-11.3573
ुद	-11.3574
▁बदली	-11.3575
▁सिद्धि	-11.3575
कॉ	-11.3583
▁खत	-11.3584
low	-11.3587
शू	-11.3588
▁करोड	-11.3592
▁म्यू	-11.3592
▁भरोसे	-11.3597
▁सिल्वर	-11.3597
▁एसएमएस	-11.3598
▁प्रतिवर्ष	-11.36
▁साईं	-11.3602
▁बुआ	-11.3602
▁नीलामी	-11.3602
▁चंदा	-11.3603
▁कमला	-11.3604
थर	-11.3605
▁अर्ध	-11.3607
▁सक्सेना	-11.3608
▁कार्टून	-11.3608
▁संकलन	-11.3608
▁रोडवेज	-11.3609
▁उपलब्धियों	-11.3609
▁इन्सान	-11.3609
लक	-11.3613
▁Bank	-11.3614
▁एकीकृत	-11.3616
▁उद	-11.3618
▁रिलेशनशिप	-11.362
▁झंडे	-11.362
▁उदास	-11.3624
▁कराकर	-11.3629
▁सोलर	-11.3631
ेक्शन	-11.3631
▁झांसी	-11.3632
बिया	-11.3633
▁बरी	-11.3634
▁मंथन	-11.3642
▁दाखिला	-11.3643
स्तर	-11.3646
▁रेक	-11.3651
▁घटक	-11.3653
▁आकृति	-11.3653
▁पैड	-11.3655
▁संभल	-11.3655
▁टॉ	-11.3661
▁चलाना	-11.3662
▁हिमा	-11.3664
▁Result	-11.3667
▁क्षतिग्रस्त	-11.3667
भु	-11.3668
▁बीबी	-11.367
▁सीए	-11.367
र्ब	-11.3672
▁बक	-11.3675
▁लाग	-11.3677
▁सफ़र	-11.368
ियस	-11.3683
▁शिकायतों	-11.3685
डोर	-11.3685
▁पौष्टिक	-11.369
▁उपायुक्त	-11.369
82	-11.3696
▁लण्ड	-11.3697
▁तोड़कर	-11.3697
लय	-11.3703
▁तम	-11.3704
▁बेगम	-11.3704
▁अस्त	-11.3705
▁वकीलों	-11.3706
▁बेचा	-11.3709
▁टायर	-11.3714
▁उपराष्ट्रपति	-11.3714
ds	-11.3717
▁एम्	-11.3718
▁मुहर	-11.372
▁प्रहार	-11.3721
▁उपयोगकर्ताओं	-11.3722
ज़े	-11.3722
▁प्रि	-11.3724
▁रोमांस	-11.3726
▁स्मिथ	-11.3726
▁आज़ाद	-11.3726
▁जंक्शन	-11.3726
▁सचेत	-11.3727
▁पतली	-11.3727
कॉन	-11.3728
▁धनिया	-11.3728
पाद	-11.3731
▁जेएनयू	-11.3732
▁बेरोजगार	-11.3738
▁एसबीआई	-11.3738
▁खुजली	-11.3738
▁प्रे	-11.374
▁अपनों	-11.3741
tro	-11.3742
▁घटित	-11.3744
▁घु	-11.3747
ेटेड	-11.3747
▁जमीनी	-11.3748
▁हड्डियों	-11.375
▁सगाई	-11.375
▁पटाखे	-11.375
आईसी	-11.375
वाना	-11.3751
▁फास्ट	-11.3751
▁आंच	-11.3753
hy	-11.3757
▁अफवाह	-11.3758
▁किला	-11.3765
tic	-11.377
▁जुल	-11.3771
▁उन्नाव	-11.3773
▁उजाला	-11.3773
▁बहार	-11.3773
▁लगवा	-11.3777
▁अम्मा	-11.3777
▁नुस्खे	-11.3777
▁1999	-11.3779
▁ठंडे	-11.3779
ोरा	-11.3783
rit	-11.3784
▁निपटा	-11.3784
ैंस	-11.3785
▁रोकथाम	-11.3785
▁गर	-11.3787
▁साईट	-11.3792
▁दाने	-11.3792
▁दिनभर	-11.3793
▁जेपी	-11.3795
▁डिपार्टमेंट	-11.3797
▁निर्वाचित	-11.3797
▁पतंजलि	-11.3797
▁रवैया	-11.3797
▁कतई	-11.3797
ीश	-11.3797
▁मसाज	-11.3798
▁बिल्डर	-11.3798
ंडे	-11.3804
▁वसंत	-11.3805
▁विमानों	-11.3807
▁लघुकथा	-11.3808
▁माफिया	-11.3808
▁अम्बेडकर	-11.3809
▁शिलान्यास	-11.3809
▁एडमिट	-11.3809
▁राघव	-11.3809
▁अंततः	-11.3812
▁सुलझा	-11.3813
▁बिर	-11.3814
▁विदा	-11.3815
uestion	-11.3815
▁Do	-11.3816
वेश	-11.3816
▁अपार	-11.3819
▁थानाध्यक्ष	-11.3822
▁फंसा	-11.3822
दत्त	-11.3823
गृह	-11.3823
▁महाजन	-11.3823
▁अर्थशास्त्र	-11.3823
▁आयुष्मान	-11.3824
न्नी	-11.3825
▁सेमी	-11.3826
सेट	-11.3828
स्था	-11.3828
▁सुनीता	-11.383
▁अस्थायी	-11.3833
▁अद्वितीय	-11.3833
▁कृत्य	-11.3834
▁नौकरियां	-11.3835
▁स्टडी	-11.3835
▁पाबंदी	-11.3835
▁बंदरगाह	-11.3845
▁सम्पत्ति	-11.3845
▁धूमधाम	-11.3845
▁सैयद	-11.3845
किन	-11.3845
▁सेक्शन	-11.3846
▁गिना	-11.3847
▁धाराओं	-11.3853
▁दहशत	-11.3857
▁परिभाषित	-11.3857
▁सहारनपुर	-11.3857
▁भागलपुर	-11.3858
▁चलेगी	-11.3859
▁पर्दा	-11.3859
▁जावेद	-11.3864
une	-11.3868
▁सॉ	-11.3868
▁दूतावास	-11.3869
▁गोस्वामी	-11.387
▁बीमारियां	-11.3874
▁your	-11.388
▁मार्क्स	-11.388
▁बैक्टीरिया	-11.3881
▁Pre	-11.3881
▁प्रधानाचार्य	-11.3882
▁छपी	-11.3884
▁निर्दलीय	-11.3893
▁आवेदक	-11.3893
▁ओमप्रकाश	-11.3893
उत्तर	-11.3893
▁संरक्षक	-11.3894
▁सुने	-11.3896
िद	-11.3897
▁सिखाया	-11.39
2)	-11.3902
ise	-11.3905
▁खिलौने	-11.3905
▁अश्विन	-11.3906
▁धा	-11.391
▁बाँट	-11.3911
▁संवाददाताओं	-11.3913
तुम	-11.3913
▁लॉस	-11.3913
▁मनुष्यों	-11.3916
▁तेवर	-11.3917
मेरी	-11.3918
▁ध्वज	-11.3918
िणी	-11.392
▁पेड	-11.3926
▁जानलेवा	-11.3929
▁शिल्प	-11.3931
ॉस	-11.3933
▁प्रतिबद्ध	-11.3933
खेड़ा	-11.3935
▁मधेश	-11.3938
बली	-11.3938
▁विजयी	-11.394
▁ठहरा	-11.394
मैंने	-11.394
▁ध्वस्त	-11.3941
▁सत्यापन	-11.3941
▁ढ़	-11.3942
▁नवजात	-11.3943
लिए	-11.3944
वर्ष	-11.3944
▁बुलाकर	-11.3945
▁माली	-11.3947
ऊं	-11.3947
▁उपलब्धता	-11.3949
▁30000	-11.3952
▁अख़बार	-11.3953
▁कृत्रिम	-11.3953
▁अंकुश	-11.3953
▁प्रदर्शनकारियों	-11.3954
▁धर्मशाला	-11.3955
तरी	-11.3959
द्वार	-11.3959
दायी	-11.396
भव	-11.3963
▁हैंडल	-11.3963
▁वॉल	-11.3965
▁दवाएं	-11.3965
▁Tags	-11.3965
▁केन्द्रों	-11.3966
▁बजरंग	-11.3966
▁एडी	-11.3967
▁गिरकर	-11.3968
▁घो	-11.3968
▁यम	-11.397
▁नीच	-11.3971
▁ट्राई	-11.3973
▁भून	-11.3975
▁छोड़ी	-11.3975
▁बहने	-11.3976
▁जडेजा	-11.3977
नै	-11.3978
▁मुस	-11.3979
▁विर	-11.3982
▁प्रजाति	-11.3985
साल	-11.3986
उन्होंने	-11.3986
▁ओपनिंग	-11.3988
▁इला	-11.3989
▁सलीम	-11.399
▁चिकित्सालय	-11.399
▁संभावनाएं	-11.3994
▁विवि	-11.3994
▁चित्त	-11.3999
if	-11.4004
▁आमने	-11.4006
▁ex	-11.4007
-8	-11.401
फिल	-11.4014
▁कानों	-11.4015
▁स्कैन	-11.4016
old	-11.4017
▁थीम	-11.4018
▁लगन	-11.402
▁वाल	-11.4026
▁काउंटर	-11.4026
▁सीखना	-11.4029
▁पतन	-11.403
con	-11.4031
▁प्वाइंट	-11.4032
▁बीबीसी	-11.4033
▁Pra	-11.4038
ye	-11.4038
▁Mobile	-11.4038
▁पाली	-11.404
.''	-11.4043
▁फुटेज	-11.4045
▁फूंक	-11.4047
▁सैं	-11.4048
▁समर्थ	-11.4049
▁प्रीमियर	-11.405
▁प्रॉपर्टी	-11.405
▁सत्तारूढ़	-11.405
▁भेड़	-11.4054
मौ	-11.4055
▁जन्मे	-11.4057
पीसी	-11.4058
▁संलग्न	-11.4063
▁ताजमहल	-11.4063
▁नजदीकी	-11.4063
▁क्लीन	-11.4064
▁अमरनाथ	-11.4067
▁निकलना	-11.4068
.10	-11.4069
▁राष्ट्रवाद	-11.4069
▁03	-11.407
मति	-11.4072
▁चन्द्रमा	-11.4072
दीन	-11.4073
्डर	-11.4074
▁माधुरी	-11.4075
▁सिग्नल	-11.4075
▁तड़प	-11.4075
▁हेल्प	-11.4076
gi	-11.4078
▁निकालना	-11.4078
▁मौसी	-11.4081
▁चिह्न	-11.4083
क्की	-11.4083
▁स्टै	-11.4084
वेयर	-11.4085
▁दिनचर्या	-11.4087
▁म्यांमार	-11.4087
▁द्विपक्षीय	-11.4087
▁डाउन	-11.4088
सागर	-11.4088
▁किराये	-11.4089
श्र	-11.4096
▁ब्लास्ट	-11.4099
▁चॉकलेट	-11.4099
▁कैलेंडर	-11.4099
▁प्रसव	-11.41
▁गोदाम	-11.41
▁क्रमशः	-11.4101
▁प्रणब	-11.4102
▁बटोर	-11.4106
▁माइकल	-11.4107
ob	-11.4107
▁बनवाने	-11.4109
▁ग्रन्थ	-11.4111
लिख	-11.4111
▁बर्खास्त	-11.4112
▁आपत्तिजनक	-11.4112
्नी	-11.4112
▁ट्रायल	-11.4117
▁आड़	-11.4118
▁प्लानिंग	-11.4121
▁झांक	-11.4122
▁तबीयत	-11.4124
▁सुखी	-11.413
▁man	-11.413
ग्रा	-11.413
▁गुम	-11.4132
▁अरोड़ा	-11.4136
▁वर्चस्व	-11.4136
स्टा	-11.4136
▁हैसियत	-11.4137
▁उत्तरप्रदेश	-11.4138
▁गू	-11.4139
▁ताऊ	-11.414
▁सर्	-11.4141
▁विंडो	-11.4141
▁टु	-11.4143
▁जया	-11.4144
वाड़ी	-11.4145
▁साय	-11.4151
▁घटी	-11.4153
रार	-11.4153
▁फार	-11.4154
ari	-11.4156
रुप	-11.4156
▁आगाज	-11.4158
▁ग्रेटर	-11.4158
cha	-11.4158
▁रेस्टोरेंट	-11.4161
▁फैले	-11.4168
▁शक्ल	-11.4169
▁सुपरहिट	-11.4173
▁हेलीकॉप्टर	-11.4173
▁कर्नल	-11.4173
▁दंगों	-11.4175
ult	-11.4179
ैक्स	-11.4179
.50	-11.4181
▁As	-11.4184
गुन	-11.4185
▁अंग्रेज	-11.4186
▁मार्	-11.4186
▁मुरादाबाद	-11.4186
▁शास्त्रीय	-11.4186
▁blog	-11.4186
▁नजरअंदाज	-11.4186
▁लीवर	-11.4187
▁स्टीव	-11.4187
स्ट्री	-11.4187
▁झाड़	-11.4188
मोहन	-11.419
▁पूछते	-11.4191
ical	-11.42
पानी	-11.4201
त्रा	-11.4202
▁करूं	-11.4202
ning	-11.4208
▁पड़ाव	-11.4209
▁कीमती	-11.4209
▁ग्रोथ	-11.421
▁छुट्टियों	-11.421
???	-11.4212
▁जीरो	-11.4213
ाउंड	-11.4215
▁देवर	-11.4218
▁देहात	-11.4218
▁पूर्वानुमान	-11.4223
▁सब्जियां	-11.4223
▁मुश्किलें	-11.4224
▁बसंत	-11.4229
mon	-11.423
्सन	-11.4235
मंत्र	-11.4235
▁परिदृश्य	-11.4235
▁And	-11.424
▁झूठी	-11.4241
शियन	-11.4242
▁2-3	-11.4243
▁वामपंथी	-11.4245
▁ढांचा	-11.4248
▁शासित	-11.4251
cy	-11.4253
▁ऐड	-11.4254
्योर	-11.4258
▁ज़ाहिर	-11.426
▁राइफल	-11.426
▁श्रवण	-11.426
▁शिकायतें	-11.4261
▁व्यंजन	-11.4261
▁बर्	-11.4262
ैंट	-11.4263
जात	-11.4264
▁निभाते	-11.4264
net	-11.4268
▁बेर	-11.4269
▁रोकना	-11.427
▁बहाल	-11.4271
वों	-11.4271
▁सकल	-11.4272
▁जाधव	-11.4273
▁अवशेष	-11.4273
▁जॉर्ज	-11.4273
▁On	-11.4275
▁ताक	-11.4276
ृत	-11.4281
्श	-11.4282
▁फोड़	-11.4284
▁करूँगा	-11.4284
▁किसके	-11.4285
cl	-11.4285
▁साध	-11.4285
▁इस्पात	-11.4285
▁अध्यापकों	-11.4285
▁बेहोश	-11.4287
▁स्टार्स	-11.4288
वाणी	-11.429
▁ग्रंथों	-11.429
▁सिवा	-11.4296
▁मुमकिन	-11.4298
ेम	-11.4299
खो	-11.4301
▁86	-11.4302
कोई	-11.4306
वारी	-11.4308
▁पॉवर	-11.431
▁जालंधर	-11.431
परि	-11.431
▁फीफा	-11.4311
▁हें	-11.4311
▁बंदी	-11.4312
▁मुस्लिमों	-11.4315
▁भगा	-11.4316
टिन	-11.4323
▁इमरजेंसी	-11.4323
▁दिखी	-11.4323
▁उठाये	-11.4323
ेंड	-11.4324
हद	-11.4324
▁महेन्द्र	-11.4324
▁माओवादी	-11.4327
▁लक्षणों	-11.4327
▁एपी	-11.4329
▁लेखिका	-11.433
▁झुका	-11.4332
▁उठाई	-11.4334
▁कानूनों	-11.4334
▁ऊंचे	-11.4336
▁फ्रेंच	-11.4336
▁कारोबारियों	-11.4337
मूल	-11.4337
▁site	-11.4337
▁स्टेटस	-11.4342
▁Ne	-11.4343
▁गाजर	-11.4345
▁लोकपाल	-11.4345
▁लय	-11.4346
▁सुधा	-11.4347
▁परोस	-11.4347
▁टीन	-11.4348
▁अरुणाचल	-11.4348
▁भयावह	-11.4348
▁ज़रिए	-11.4348
▁वकालत	-11.4348
▁2016-17	-11.4349
▁पूज्य	-11.4349
एससी	-11.4357
त्तर	-11.4359
करी	-11.436
▁धरोहर	-11.4361
पुत्र	-11.4367
▁अद	-11.4367
▁लम्बा	-11.437
▁डॉन	-11.4371
▁साह	-11.4373
▁खिसक	-11.4374
▁मोहल्ला	-11.4374
▁पुस्तकालय	-11.4374
▁81	-11.4377
▁दण्ड	-11.4379
log	-11.4381
▁मठ	-11.4382
▁उबल	-11.4384
▁पंद्रह	-11.4386
▁Today	-11.4386
▁गन	-11.4388
▁अंध	-11.4388
▁संबद्ध	-11.4389
▁रसूल	-11.4394
▁तोमर	-11.4395
▁शर	-11.4398
▁उल्टी	-11.4399
▁Po	-11.4399
▁सर्विसेज	-11.44
are	-11.44
▁देवगन	-11.4402
AI	-11.4403
▁पेंटिंग	-11.4404
▁दुरुस्त	-11.4405
परिवार	-11.4409
▁उन्ही	-11.4411
▁धूम्रपान	-11.4411
▁आजीवन	-11.4412
▁एक्सपर्ट	-11.4416
ढ़ी	-11.4417
▁बेल्ट	-11.4419
▁श्रमिकों	-11.442
▁मुड़	-11.442
▁सवर्ण	-11.4426
ush	-11.4428
-17	-11.443
▁झूल	-11.4431
▁बाँ	-11.4436
▁Account	-11.4436
▁मुल	-11.4438
▁सती	-11.4439
▁करोगे	-11.444
▁अम्ब	-11.4448
▁नमूना	-11.4449
▁नगरपालिका	-11.4449
▁बनवाया	-11.445
फाइ	-11.4451
▁एसटी	-11.4451
▁बजकर	-11.4452
सम्	-11.4452
ard	-11.4456
▁दुखद	-11.4458
▁पॉइंट	-11.4459
▁क्रियान्वयन	-11.4462
▁डेवलपमेंट	-11.4462
▁सुसाइड	-11.4463
▁सीएस	-11.4464
▁काजल	-11.4465
▁नागरिकता	-11.447
▁करिश्मा	-11.4475
▁कुंजी	-11.4478
▁एह	-11.4479
▁छिपे	-11.4482
▁काबिल	-11.4483
▁Web	-11.4486
▁Khabar	-11.4487
▁सज्जन	-11.4487
▁रोमन	-11.4489
.00	-11.4494
▁दूँ	-11.4498
▁स्थाई	-11.45
▁यादों	-11.45
चरण	-11.4501
▁मच्छर	-11.4502
▁राजदूत	-11.4502
▁प्रासंगिक	-11.4503
▁चोदने	-11.4507
ेरे	-11.4508
▁लॉग	-11.4508
▁आंक	-11.451
▁घने	-11.451
▁कृत	-11.4511
▁मल्होत्रा	-11.4513
▁उछल	-11.4513
▁उपमुख्यमंत्री	-11.4514
▁तीव्रता	-11.4514
▁मूलभूत	-11.4515
नक	-11.4516
son	-11.4519
▁पथरी	-11.452
स्वामी	-11.4521
कान	-11.4522
▁संभावनाओं	-11.4523
थो	-11.4523
क्षी	-11.4528
▁अबतक	-11.4528
▁बाएं	-11.4529
▁समीकरण	-11.4529
ेटिव	-11.453
▁प्रचारक	-11.4531
येंगे	-11.4532
ef	-11.4532
▁मंद	-11.4534
▁डिब्बे	-11.4539
▁सर्किट	-11.4539
▁एनडीटीवी	-11.4539
▁गडकरी	-11.4539
्रेट	-11.4539
▁all	-11.4542
़ी	-11.4545
▁आसार	-11.4546
▁शू	-11.4546
रिस	-11.4547
▁वॉक	-11.4547
▁तिर	-11.4551
ंटे	-11.4551
▁Kendriya	-11.4551
▁शोधकर्ताओं	-11.4553
बंदी	-11.4554
ाधिकार	-11.4555
▁82	-11.4556
▁धर्मों	-11.4559
ek	-11.4564
▁बढ़ना	-11.4568
▁प्रयुक्त	-11.4568
▁मक्का	-11.4569
▁हिंद	-11.4572
▁देशभक्ति	-11.4572
▁लगाम	-11.4573
▁मृतकों	-11.4575
मीटर	-11.4576
▁उत्थान	-11.4577
▁चश्मा	-11.4577
▁ट्रांसपोर्ट	-11.4577
▁पायदान	-11.4577
▁सैम	-11.4582
▁किस्से	-11.4586
▁एप्प	-11.4587
▁प्रणाम	-11.459
दिल्ली	-11.459
▁बकरी	-11.459
▁लोहिया	-11.4591
ायी	-11.4591
ाट	-11.4593
सूत्र	-11.4594
shi	-11.4599
▁बागी	-11.4599
▁Vidyalaya	-11.4603
▁जौ	-11.4603
▁स्वामित्व	-11.4603
▁जर	-11.4605
वाड़	-11.4605
▁ड्रा	-11.4607
ंजा	-11.4609
फिक	-11.4613
▁अनुसरण	-11.4616
▁नाजुक	-11.4616
वाय	-11.4616
▁शादीशुदा	-11.4617
श्व	-11.4618
use	-11.4618
▁द्वि	-11.462
▁एव	-11.4622
गू	-11.4627
▁एंकर	-11.4627
ji	-11.4629
hat	-11.463
▁टाइट	-11.4632
▁सुप्रीमो	-11.4633
▁जुआ	-11.4633
▁निवेशक	-11.4634
▁दरार	-11.4639
▁किचन	-11.4639
▁बॉय	-11.4642
▁बढ़ोत्तरी	-11.4642
▁एंड्रॉइड	-11.4642
▁पसीने	-11.4642
▁कपास	-11.4642
▁रविशंकर	-11.4642
▁तोड़ा	-11.4642
▁जुटाने	-11.4645
▁बुलेट	-11.4647
▁Ga	-11.4647
▁बढ़ाता	-11.4649
मीन	-11.465
ावल	-11.465
▁79	-11.4651
▁टकराव	-11.4651
▁गुजरने	-11.4653
▁जितेंद्र	-11.4655
▁झारखण्ड	-11.4655
▁निमंत्रण	-11.4655
▁असफलता	-11.4655
▁सिनेमाघर	-11.4656
न्दा	-11.4657
बीच	-11.466
्टि	-11.4661
▁कुं	-11.4663
▁गायन	-11.4666
क्रिया	-11.4667
▁रक्तचाप	-11.4668
▁डिस्काउंट	-11.4668
▁गायिका	-11.4671
▁भो	-11.4672
DI	-11.4672
▁2020	-11.4673
बारी	-11.4673
▁अलवर	-11.4676
▁लिपि	-11.4678
ाउ	-11.4678
▁नक्सल	-11.4678
ui	-11.468
▁ज्वाइन	-11.4681
पाकिस्तान	-11.4681
▁विजिट	-11.4681
▁मुरली	-11.4682
▁सरोज	-11.4685
▁रोष	-11.4688
▁माइक	-11.4688
▁इनमे	-11.4691
छु	-11.4692
▁अनुचित	-11.4695
▁शीश	-11.4695
▁जवाहरलाल	-11.4695
▁बोलता	-11.4695
▁बांटने	-11.4696
ens	-11.4696
▁ताकतवर	-11.47
▁en	-11.4701
▁छप	-11.4703
▁राहु	-11.4704
▁घुसा	-11.4705
▁जीप	-11.4706
षभ	-11.4706
▁घृणा	-11.4707
▁टॉयलेट	-11.4707
▁निदान	-11.4714
▁जिस्म	-11.4716
रक्षक	-11.4716
▁बेल्जियम	-11.472
▁नाश्ता	-11.472
▁सियान	-11.4721
▁will	-11.4722
पढ़े	-11.4722
▁5000	-11.4723
ुस	-11.4725
गली	-11.4726
ock	-11.4727
▁आफिस	-11.4728
▁na	-11.4728
▁सहवाग	-11.4733
Sh	-11.4733
▁हेमंत	-11.4734
्रिक	-11.4737
ार्थी	-11.4738
▁Cha	-11.4742
त्या	-11.4743
sha	-11.4744
▁अहिंसा	-11.4746
▁(3	-11.4747
▁बीए	-11.4747
▁गोबर	-11.4747
▁अभिभावक	-11.4748
▁विराम	-11.4749
org	-11.4751
▁94	-11.4752
▁up	-11.4752
▁टूर	-11.4757
▁पालतू	-11.476
▁फटकार	-11.4762
लिका	-11.4762
▁गानों	-11.4762
▁धनु	-11.4762
सिम	-11.4764
भावना	-11.4767
▁हिदायत	-11.4772
▁ग्राफ़	-11.4774
नन	-11.4776
▁जीवों	-11.4779
▁रुकने	-11.478
▁बांस	-11.4782
▁गिराया	-11.4784
▁सेवानिवृत्त	-11.4784
ोलॉजी	-11.4785
शय	-11.4785
▁परदे	-11.4787
▁अन्तिम	-11.4788
▁संभाला	-11.4788
▁कंप	-11.4788
▁इतर	-11.4789
▁चोटी	-11.4789
▁सोचकर	-11.4789
एनए	-11.4792
▁ज़ि	-11.4793
▁पक्षियों	-11.4796
▁आंबेडकर	-11.4798
▁जातीय	-11.4799
▁उद्यम	-11.4801
-18	-11.4802
▁आदान	-11.4807
▁चिन्ता	-11.481
▁हवन	-11.4811
▁पीयूष	-11.4812
▁नारद	-11.4813
▁चुनें	-11.4814
▁अंचल	-11.4815
कृष्ण	-11.4815
▁छुट	-11.4815
▁प्रजापति	-11.4815
▁इंट	-11.4816
▁देंगी	-11.4819
्के	-11.482
ple	-11.4821
ite	-11.4823
रीन	-11.4823
▁अनमोल	-11.4825
▁न्यायपालिका	-11.4825
▁कुत्तों	-11.4825
▁अरविन्द	-11.4825
क्षक	-11.4827
ंद्र	-11.4828
▁डीएसपी	-11.4829
डीएस	-11.483
यदि	-11.4833
गिर्द	-11.4834
▁कैदियों	-11.4835
▁चेतन	-11.4836
▁इन्होने	-11.4838
▁महिंद्रा	-11.4838
रै	-11.4839
▁आटे	-11.484
▁रस्म	-11.484
▁So	-11.4841
▁डीलर	-11.4842
▁पाएं	-11.4844
▁जेन	-11.4847
▁कांच	-11.4847
▁लगना	-11.4851
निर्	-11.4856
ाइज़	-11.4861
tor	-11.4863
पथ	-11.4865
▁अनि	-11.4866
▁ड्रामा	-11.4867
▁डिजाइनर	-11.4869
▁प्यारा	-11.4873
साम	-11.4876
▁संकेतक	-11.4876
ज्य	-11.4877
लता	-11.4877
▁व्हाट्सएप	-11.4878
▁इरादे	-11.4878
▁ज़माने	-11.4878
▁रस्सी	-11.4879
-7	-11.4885
▁सिमट	-11.4886
▁झगड़े	-11.4886
▁MP	-11.4886
▁फरमान	-11.4887
▁सुरंग	-11.4887
▁नियत	-11.4888
▁प्रवासी	-11.489
▁मर्जी	-11.4891
▁अभिनव	-11.4891
म्मा	-11.4892
▁निवासियों	-11.4894
▁जबरदस्ती	-11.4894
स्ती	-11.4895
▁नग्न	-11.4895
पुरम	-11.4899
भारतीय	-11.4904
▁iPhone	-11.4904
▁पटियाला	-11.4904
▁मारुति	-11.4904
▁नजारा	-11.4904
▁तिरंगा	-11.4905
दरी	-11.4905
▁शिवपुरी	-11.4907
▁खर्चा	-11.491
▁शांतिपूर्ण	-11.491
▁आयुष	-11.491
वर्धन	-11.4913
▁Price	-11.4918
▁इज	-11.4918
▁समझकर	-11.492
▁घूमते	-11.4921
एसएस	-11.4922
उधर	-11.4922
▁हाइ	-11.4925
्लो	-11.4926
AT	-11.4926
▁हजारे	-11.4927
रियल	-11.4928
▁घाटा	-11.4929
▁पहनी	-11.4929
▁रिटायर	-11.493
▁पुख्ता	-11.4931
शान	-11.4932
▁असाधारण	-11.4932
▁समाधि	-11.4933
विरोधी	-11.4935
▁विरोधियों	-11.4937
▁आईपी	-11.4942
▁घटकर	-11.4948
▁अकाली	-11.4949
ट्रा	-11.4955
र्र	-11.4956
शुल्क	-11.4958
ांश	-11.4958
▁घुल	-11.4958
▁भलाई	-11.4961
▁आशय	-11.4961
▁कुश्ती	-11.4971
बान	-11.4973
▁that	-11.4973
▁How	-11.4975
अभी	-11.4978
600	-11.4981
▁एमएस	-11.4981
▁तलब	-11.4983
▁बेवकूफ	-11.4985
▁बॉर्डर	-11.4985
▁y	-11.4985
▁चौंक	-11.4986
घंटा	-11.4987
▁टीबी	-11.4993
नपुर	-11.4994
▁रजनीकांत	-11.4998
▁Sha	-11.4999
▁गान्ड	-11.5
▁पतला	-11.5001
▁शीट	-11.5002
▁कार्यालयों	-11.5004
दर्शन	-11.5009
▁पिया	-11.501
जन्म	-11.5011
▁अफसोस	-11.5011
▁प्रॉ	-11.5013
जाने	-11.5014
विचार	-11.5015
▁बुलाई	-11.5015
▁चूम	-11.5016
▁मुताबिक़	-11.502
ys	-11.502
▁एनसीआर	-11.5021
▁चुद	-11.5022
▁अमावस्या	-11.5025
▁91	-11.5025
▁पन्ना	-11.5027
unt	-11.5028
▁ब्रे	-11.503
▁वेल	-11.5036
▁बंगाली	-11.5036
▁डू	-11.5038
भेद	-11.5039
▁यूरो	-11.5045
▁83	-11.5046
▁Un	-11.5049
▁अवलोकन	-11.5052
प्रसार	-11.5053
▁मैडम	-11.5053
▁हुनर	-11.5054
▁डीजीपी	-11.5054
▁Free	-11.5054
▁गिरे	-11.5055
▁नबी	-11.5056
▁बनें	-11.5057
ful	-11.506
▁can	-11.5062
▁वेदों	-11.5062
रेन	-11.5063
मानी	-11.5063
▁Click	-11.5065
▁PDF	-11.5065
▁आविष्कार	-11.5065
▁सनसनी	-11.5065
▁तोहफा	-11.5065
▁नूर	-11.5065
▁मेघालय	-11.5066
▁टाउन	-11.5067
▁1996	-11.5068
▁(10	-11.507
-16	-11.5071
▁रौ	-11.5072
▁दिल्लीः	-11.5075
▁त्यागी	-11.5076
▁निर्मला	-11.5079
▁बकर	-11.5079
▁अलविदा	-11.5079
▁ग्रैंड	-11.508
▁करवाए	-11.5081
▁वाइ	-11.5081
कार्ड	-11.5083
ैश	-11.5084
▁1500	-11.5086
▁इंडस्ट्रीज	-11.5092
▁Computer	-11.5092
ong	-11.5093
pt	-11.5095
▁टीका	-11.5098
▁ड्राइविंग	-11.5099
▁सटे	-11.5101
▁केन्द्रित	-11.5104
▁Lo	-11.5104
▁88	-11.5105
साद	-11.5105
▁जन्माष्टमी	-11.5106
▁वैभव	-11.5106
▁जीरा	-11.5108
▁so	-11.511
▁प्रतिपक्ष	-11.5111
ok	-11.5112
गुल	-11.5114
▁शम	-11.5114
▁ओवरों	-11.5115
▁पोत	-11.5117
▁लौ	-11.5118
▁जनक	-11.5118
▁जायसवाल	-11.512
▁यूनाइटेड	-11.512
डीह	-11.5121
▁नॉर्थ	-11.5121
tter	-11.5121
▁चट	-11.5127
▁पद्मावती	-11.5127
▁पात्रता	-11.5131
▁खुदाई	-11.5131
लेख	-11.5131
▁विख्यात	-11.5133
▁सशस्त्र	-11.5133
▁रियासत	-11.5133
▁अरबी	-11.5134
▁टोपी	-11.5135
▁भावार्थ	-11.5137
▁World	-11.5139
▁रहल	-11.5139
▁Sex	-11.514
▁पवार	-11.514
▁आजतक	-11.5144
800	-11.5146
▁खिंच	-11.5147
▁तुरन्त	-11.5147
▁दंगे	-11.515
हिर	-11.5153
जै	-11.5154
ेंडर	-11.5154
ुल्लाह	-11.5156
▁लड़ते	-11.5158
▁जीवंत	-11.516
▁ऊँची	-11.5161
▁फोटोज	-11.5161
▁सिक्का	-11.5163
▁अटक	-11.5164
▁द्र	-11.5166
▁ठंडी	-11.5168
▁फ़ि	-11.5168
▁खाड़ी	-11.5169
▁पूल	-11.5171
▁लेटर	-11.5172
▁o	-11.5173
▁डालर	-11.5173
▁प्रतिकूल	-11.5174
▁किन्नर	-11.5176
▁हिना	-11.5176
▁श्वेता	-11.5179
ण्य	-11.5179
▁Main	-11.518
ेंसी	-11.518
▁आईजी	-11.5181
▁खुशियों	-11.5187
▁Uttar	-11.5188
▁विद्यमान	-11.5188
▁चित्रों	-11.5188
▁विचित्र	-11.519
▁गुनाह	-11.5191
▁ad	-11.5193
ber	-11.5195
▁मूर्ख	-11.5195
▁रम	-11.5196
▁गॉ	-11.5196
▁योद्धा	-11.5202
▁चित्रण	-11.5202
शाला	-11.5206
▁ढोल	-11.5207
▁मतों	-11.5208
▁खरीदते	-11.5208
▁पीपी	-11.5208
▁जोगी	-11.5209
▁माइ	-11.5212
▁सूचक	-11.5214
▁टॉस	-11.5215
▁आश्रय	-11.5215
▁पाटीदार	-11.5215
प्रद	-11.5217
▁बाजी	-11.5217
▁पेय	-11.5219
▁(20	-11.5225
▁All	-11.5225
▁अश	-11.5228
▁डिफेंस	-11.5229
ries	-11.5232
▁लंच	-11.5234
▁मिलाएं	-11.5235
▁असीम	-11.5235
▁फिल	-11.5235
स्को	-11.5235
▁इन्ही	-11.5236
▁प्रशंसकों	-11.5236
▁मारना	-11.5239
▁तिब्बत	-11.5241
▁पैकेट	-11.5242
▁हॉस्टल	-11.5243
▁लाता	-11.5245
▁मायके	-11.5246
▁गम्भीर	-11.5247
▁अनेकों	-11.5248
बहन	-11.5249
▁देशवासियों	-11.5251
वेस्ट	-11.5252
क्श	-11.5252
SE	-11.5254
▁सम्बोधित	-11.5256
▁क्रिसमस	-11.5257
▁Li	-11.526
टाइम	-11.5261
▁सोचे	-11.5263
ny	-11.5263
▁सीपी	-11.5264
पूर	-11.5264
▁धर्मेंद्र	-11.5267
▁कहर	-11.5267
ass	-11.5267
nt	-11.5269
▁पूछना	-11.5269
▁अमेरिकन	-11.527
▁सर्जिकल	-11.527
▁खुदा	-11.527
▁बदबू	-11.5271
▁आख़िर	-11.5274
प्ला	-11.529
▁महंत	-11.5291
एड	-11.5291
▁Mu	-11.5294
जरी	-11.5297
▁अन्नाद्रमुक	-11.5298
▁पोशाक	-11.5298
▁चित्रकूट	-11.5298
▁Master	-11.5298
▁धकेल	-11.5298
▁लंका	-11.5298
▁Reviewed	-11.5298
,999	-11.53
िच	-11.53
▁अनार	-11.53
ome	-11.5301
▁संन्यास	-11.5303
ea	-11.5303
▁उगा	-11.5305
▁अगवा	-11.5306
-15	-11.5306
धे	-11.5307
ानन्द	-11.5307
▁San	-11.5308
रपुर	-11.5308
▁अफ	-11.5309
ंश	-11.531
▁कार्यान्वयन	-11.5312
▁धंधा	-11.5312
▁दर्दनाक	-11.5312
▁विराजमान	-11.5312
▁रखरखाव	-11.5312
▁एलर्जी	-11.5312
▁पथराव	-11.5312
▁प्रबन्ध	-11.5313
इंट	-11.5314
ष्ण	-11.5314
▁थम	-11.5318
▁शे	-11.5318
air	-11.5318
▁पदोन्नति	-11.5318
नई	-11.5319
▁प्लेन	-11.5321
▁पैसेंजर	-11.5321
▁सीआरपीएफ	-11.5326
▁पृथक	-11.5326
▁धक्के	-11.5326
▁ऑपरेटिंग	-11.5326
▁पूरक	-11.5327
▁रिक्शा	-11.5327
रियर	-11.5329
▁exam	-11.5331
▁no	-11.5334
बोल	-11.5334
0)	-11.5336
▁अकाल	-11.5337
▁ब्रोकर	-11.5339
▁प्राइस	-11.5343
▁एण्ड	-11.5344
▁बिज	-11.5345
ायन	-11.5345
▁साइज	-11.5346
▁सिक	-11.5346
ुला	-11.5347
खाने	-11.5349
इत	-11.5349
SS	-11.5351
कां	-11.5352
▁सतर्कता	-11.5353
▁एनकाउंटर	-11.5353
▁कारावास	-11.5354
▁ईडी	-11.5354
▁नाले	-11.5354
▁कंटेंट	-11.5354
▁हिरण	-11.5356
्ख	-11.5357
▁दौलत	-11.5367
▁मनोवैज्ञानिक	-11.5367
▁जिन्ना	-11.537
▁मोल	-11.5375
▁ग़	-11.5376
वद	-11.5378
▁ईशा	-11.5378
▁सीमेंट	-11.5379
▁चालीस	-11.5379
▁धमाके	-11.538
▁सिक्किम	-11.5381
▁पुं	-11.5384
▁चबा	-11.5384
सीसी	-11.5384
▁जीन	-11.5385
ंकी	-11.5385
900	-11.5387
▁तरस	-11.5388
कने	-11.5391
▁व्यू	-11.5393
िंद	-11.5393
▁we	-11.5393
▁भरना	-11.5393
ath	-11.5394
▁थाईलैंड	-11.5395
▁अनुपालन	-11.5396
▁झूम	-11.5396
ावर	-11.5397
▁गुजराती	-11.5399
गुप्त	-11.54
▁विश्वनाथ	-11.5401
▁करूँ	-11.5401
▁मुंडा	-11.5403
eb	-11.5404
▁एनएच	-11.5405
ूंगी	-11.5407
▁इस्तीफे	-11.5409
▁ठुकरा	-11.5409
▁दक्षता	-11.5418
▁काटे	-11.5419
▁प्लीज	-11.5421
▁रवींद्र	-11.5423
▁लड्डू	-11.5423
▁साम्प्रदायिक	-11.5423
▁मातृ	-11.5424
रोज़	-11.5431
oc	-11.5431
▁श्रमिक	-11.5432
▁नमन	-11.5432
▁टेप	-11.5432
योगी	-11.5433
▁लिपट	-11.5433
▁उम्मीदें	-11.5436
▁बंटवारे	-11.5437
▁श्रेणियों	-11.5437
ाएगी	-11.5438
▁dis	-11.5439
▁आयेगा	-11.5448
yan	-11.5448
▁Dr	-11.5448
▁परिषद्	-11.545
डीसी	-11.545
▁इंश्योरेंस	-11.5451
ven	-11.5452
▁NEWS	-11.5452
ारे	-11.5456
भूषण	-11.5458
▁यूथ	-11.5461
▁फ्रेम	-11.5463
▁समेट	-11.5463
PS	-11.5465
▁क़रीब	-11.5465
▁दूषित	-11.5466
▁सिद्धान्त	-11.5466
बेल	-11.5467
▁कसर	-11.5467
कृति	-11.5469
ंर	-11.5472
▁जानकारियों	-11.5473
▁रिहाई	-11.5475
द्दा	-11.5476
▁350	-11.5478
▁अद्यतन	-11.5479
▁अनावश्यक	-11.5479
▁87	-11.5481
▁क्रूर	-11.5481
▁खोद	-11.5483
▁ब्लोग	-11.5483
bu	-11.5483
RA	-11.5484
▁मदर	-11.5484
ड़ियां	-11.5486
▁प्रावधानों	-11.5487
---	-11.5487
ल्ली	-11.5489
मुखी	-11.5489
▁कोरियाई	-11.549
▁बिताने	-11.5491
▁महबूबा	-11.5493
▁वर्दी	-11.5495
▁कूड़ा	-11.5495
▁TV	-11.55
▁निहार	-11.5501
▁97	-11.5503
ानुसार	-11.5504
▁vs	-11.5504
एआई	-11.5505
्टे	-11.5505
▁प्राइम	-11.5505
▁आंशिक	-11.5508
▁बंगले	-11.5509
▁देखरेख	-11.5511
▁कमलनाथ	-11.5511
वित	-11.5512
▁जातकों	-11.5513
ous	-11.5514
जनक	-11.5514
एमएस	-11.5517
▁भगवा	-11.5518
▁चने	-11.5519
▁साठ	-11.552
▁जुनून	-11.5522
▁सहानुभूति	-11.5522
▁जीवनशैली	-11.5523
▁बरसों	-11.5523
▁अंधकार	-11.5524
way	-11.5524
मंद	-11.5529
रिंग	-11.5529
▁नीलम	-11.553
su	-11.5531
▁लिप	-11.5533
दर्शी	-11.5534
तुल	-11.5535
▁कवरेज	-11.5536
▁दसवीं	-11.5536
▁ब्राउन	-11.5537
▁रखनी	-11.5538
▁सक्रियता	-11.5538
▁प्ल	-11.5539
▁निर	-11.5541
obs	-11.5542
day	-11.5547
▁ढो	-11.5549
▁अनोखा	-11.555
▁तड़के	-11.555
▁हिचक	-11.5551
▁कबूल	-11.5553
▁फर्श	-11.5555
ूम	-11.5557
फि	-11.5557
▁शिया	-11.5561
गेट	-11.5564
▁विश्वकर्मा	-11.5564
▁वृत्त	-11.5565
ावत	-11.5566
▁क्यो	-11.5568
इयां	-11.5568
▁अंडा	-11.5569
▁तबाही	-11.5575
▁चहल	-11.5576
▁उनमे	-11.5577
िष्ठ	-11.5577
▁खयाल	-11.5579
▁बूढ़े	-11.5579
▁110	-11.5585
ॉर्ट	-11.5588
▁विशेषताओं	-11.559
▁फोर	-11.559
▁गीतकार	-11.5591
▁राजाओं	-11.5591
▁क्	-11.5592
▁पारदर्शिता	-11.5593
▁जेडीएस	-11.5594
▁Step	-11.5596
▁जाइए	-11.5596
▁उपक्रम	-11.5596
स्कर	-11.5597
बुल	-11.5597
▁ब्राह्मणों	-11.5599
▁एंव	-11.5604
▁चप्पल	-11.5607
▁संरक्षित	-11.5607
▁पक्की	-11.5609
▁अड्डा	-11.5609
वृत्ति	-11.5609
▁1993	-11.561
▁रजा	-11.561
धारा	-11.5614
ग्रेस	-11.5614
▁आनन	-11.5615
▁IN	-11.5615
विंदर	-11.5616
▁सैन	-11.5618
▁बहुल	-11.5618
नीति	-11.5619
▁मिटाने	-11.5619
▁नं	-11.562
▁खल	-11.5621
▁WhatsApp	-11.5621
▁क्रमांक	-11.5626
▁चमकदार	-11.5627
▁कोशिशों	-11.5627
्यूट	-11.5628
▁English	-11.5629
▁मियां	-11.5629
IM	-11.5633
▁गैलेक्सी	-11.5636
▁झूठा	-11.5636
सेंट	-11.5636
▁गन्ने	-11.5637
▁गतिविधियां	-11.5637
▁पाएगी	-11.5638
ose	-11.5638
▁वक्तव्य	-11.564
्जा	-11.5642
▁शहीदों	-11.5648
▁अबू	-11.565
▁उज्ज्वल	-11.565
▁स्वाभिमान	-11.565
▁सुरेन्द्र	-11.5651
▁We	-11.5655
▁सजग	-11.5658
▁मीट	-11.5659
▁जानकारों	-11.5664
▁तैमूर	-11.5664
▁बिज़नेस	-11.5664
▁हौसला	-11.5665
▁फाइनेंस	-11.5665
▁हाईस्कूल	-11.5665
्स्ट	-11.5665
▁पाट	-11.5666
tu	-11.567
RI	-11.5673
ंका	-11.5675
▁गलतियों	-11.5678
▁प्रैक्टिस	-11.5679
▁अपेक्षाकृत	-11.5679
▁एकाउंट	-11.568
▁फतेहपुर	-11.5681
uck	-11.5681
▁भंडारण	-11.5684
▁मीर	-11.5685
▁मंजू	-11.5685
hen	-11.5688
-30	-11.5689
बैक	-11.5691
▁प्रदेशों	-11.5692
▁गाजीपुर	-11.5693
▁अछूत	-11.5693
ring	-11.5694
मोह	-11.5695
▁विध	-11.5696
फ़ी	-11.5698
दुनिया	-11.57
▁एडिटर	-11.5704
▁बढ़ाई	-11.5705
▁वृश्चिक	-11.5708
▁साध्वी	-11.5708
अभि	-11.5708
▁क्विंटल	-11.5709
▁फ़िल्मों	-11.5711
cu	-11.5714
raj	-11.5719
▁रोते	-11.5721
rs	-11.5722
▁ब्रिगेड	-11.5722
ara	-11.5723
▁May	-11.5723
दों	-11.5724
▁bo	-11.5726
कांग्रेस	-11.5728
फू	-11.5728
▁पिंक	-11.5734
▁Primary	-11.5736
▁जिहाद	-11.5737
▁लड़ाकू	-11.5737
▁93	-11.5737
▁दाऊद	-11.5738
▁बसें	-11.5738
▁कटे	-11.5739
▁राजभाषा	-11.574
▁दहन	-11.5742
▁श्रीकांत	-11.5744
ोई	-11.5744
▁उदार	-11.5747
▁सुमित	-11.5749
▁समझदार	-11.5749
▁खुराक	-11.5751
▁रक्षक	-11.5751
▁बर्थडे	-11.5751
▁पिछला	-11.5753
▁लक्ष्यों	-11.5757
ron	-11.5759
्ते	-11.5766
▁ज़ा	-11.577
2013	-11.5772
ष्टि	-11.5773
▁राशियों	-11.5773
पित	-11.5779
ouTube	-11.5779
▁राजस्थानी	-11.578
▁यादें	-11.5782
red	-11.5782
ुका	-11.5784
▁रॉक	-11.5786
▁अभियुक्त	-11.5786
▁भागीदार	-11.5786
अत	-11.5789
▁700	-11.5793
थल	-11.5794
▁रूबरू	-11.5794
▁सिकंदर	-11.5795
▁टेंडर	-11.5796
गाम	-11.5796
िज़	-11.5797
▁खरीदे	-11.5798
स्टे	-11.5799
▁सोलह	-11.5802
्ने	-11.5802
ET	-11.5805
▁Portal	-11.5809
▁इकाइयों	-11.5809
▁उत्तेजित	-11.5809
▁दार्शनिक	-11.5809
▁पनप	-11.581
▁पारदर्शी	-11.581
▁डिनर	-11.5811
▁अभिलेख	-11.5813
इया	-11.5813
▁प्रात	-11.5815
▁खुलासे	-11.5815
▁मंदी	-11.5819
▁सोचती	-11.582
▁डीएनए	-11.5822
▁चेंज	-11.5822
िकाओं	-11.5822
▁मसाले	-11.5823
▁डेयरी	-11.5824
द्घ	-11.5825
▁सबने	-11.5826
ted	-11.5826
▁कुंड	-11.5826
▁घिस	-11.5829
▁झोंक	-11.5829
पोस्ट	-11.583
▁बेटों	-11.5838
▁बिखेर	-11.5838
▁मलेरिया	-11.5839
▁हुक्म	-11.5839
▁घरवालों	-11.5842
▁भली	-11.5843
ान्तर	-11.5844
▁राइट	-11.5848
▁तत्त्व	-11.5849
▁मुक	-11.5849
▁खाए	-11.5849
▁प्रशासक	-11.5853
▁free	-11.5854
▁कुमारस्वामी	-11.5858
wi	-11.5859
आं	-11.5859
▁लौटते	-11.586
▁ऑस्ट्रेलियाई	-11.5863
▁घाटे	-11.5867
▁ओपी	-11.5867
▁धंधे	-11.5867
ौत	-11.5869
▁भेजकर	-11.5871
▁भस्म	-11.5871
यार	-11.5871
▁मेड	-11.5873
नियम	-11.5874
▁घटिया	-11.5875
▁टावर	-11.5875
▁अस्थि	-11.5877
▁एसएस	-11.5877
▁टोन	-11.5881
▁भै	-11.5882
▁अस्वीकार	-11.5882
हिं	-11.5884
आईएम	-11.5884
▁जिनमे	-11.5885
ME	-11.5886
▁विज्ञापनों	-11.5886
वर्स	-11.5886
चढ़ाव	-11.589
▁अा	-11.589
eg	-11.5893
che	-11.5893
ज़न	-11.5894
▁टिका	-11.5895
कई	-11.5896
▁क्लिप	-11.5896
▁अध्यादेश	-11.5897
▁इशारे	-11.5897
▁दिवंगत	-11.5897
▁सम्पादक	-11.5897
▁मनरेगा	-11.5897
▁अंधविश्वास	-11.5897
▁फी	-11.5902
fer	-11.5903
िष्	-11.5906
नव	-11.591
▁वहा	-11.5911
ौरा	-11.5911
▁October	-11.5912
▁उखाड़	-11.5912
ईसी	-11.5918
▁कमलेश	-11.5919
य्या	-11.5919
म्स	-11.5919
▁फौरन	-11.5926
▁तोड़फोड़	-11.5926
▁कचरे	-11.5927
▁सूचीबद्ध	-11.593
ane	-11.593
▁माहिर	-11.5932
▁सजाया	-11.5933
▁पाइए	-11.5934
▁बलिया	-11.5934
▁शीत	-11.5935
▁चोदा	-11.5938
▁दावेदार	-11.594
▁जर्नल	-11.5941
बानी	-11.5942
RE	-11.5945
सेवक	-11.5948
▁रैना	-11.5951
▁चुकाने	-11.5952
NA	-11.5956
▁जिज्ञासा	-11.5956
▁निस्तारण	-11.5956
▁रोहिंग्या	-11.5956
▁बंसल	-11.5956
▁थाली	-11.5958
▁1992	-11.5958
een	-11.596
▁साधते	-11.5962
▁दूं	-11.5967
▁नंगा	-11.5969
▁रंजीत	-11.5971
▁ठप	-11.5971
▁रिचार्ज	-11.5971
▁धड़कन	-11.5974
▁हाइवे	-11.5976
▁डब्ल्यू	-11.5976
▁Note	-11.5978
▁मनीषा	-11.5979
रेख	-11.5983
ज्ञा	-11.5985
▁दीर्घ	-11.5985
प्रे	-11.5986
तियों	-11.5986
▁फेंकने	-11.5986
▁अहमियत	-11.5987
▁चन्द	-11.5987
स्तरीय	-11.5988
war	-11.5991
▁स्पष्टीकरण	-11.5993
▁टूटे	-11.5993
▁घुटनों	-11.5996
सफाई	-11.5996
▁श्वास	-11.5998
▁व्यवसायी	-11.5999
▁विस्फोटक	-11.5999
▁Business	-11.6
किल	-11.6
▁कराती	-11.6004
▁10,000	-11.6007
चन्द्र	-11.6013
▁सिह	-11.6013
▁लेडी	-11.6014
▁जिसपर	-11.6015
▁देओल	-11.6015
नायक	-11.6016
▁जवानी	-11.6017
▁मेक	-11.6018
▁गोल्डन	-11.6018
व्रत	-11.6018
निष्ठ	-11.6019
▁तुमको	-11.6019
▁टूटी	-11.6024
रोज	-11.6026
▁आभास	-11.603
▁मनोकामना	-11.603
▁अविनाश	-11.603
▁रोहतक	-11.603
▁झंडी	-11.6031
▁विधिवत	-11.6031
▁रमा	-11.6031
खबर	-11.6032
▁समझें	-11.6033
▁वाणिज्यिक	-11.6033
शीलता	-11.6034
▁लीडर	-11.6035
▁निशा	-11.6038
▁ठगी	-11.6038
rr	-11.6038
▁श्वेत	-11.604
▁प्रेमियों	-11.6041
▁केयर	-11.6042
▁इश्क	-11.6043
▁रोना	-11.6044
▁अड़	-11.6045
▁प्रसंस्करण	-11.6045
▁इंजेक्शन	-11.6045
▁कौशिक	-11.6045
▁सुखा	-11.6046
▁इंसानों	-11.6049
▁छात्रावास	-11.605
▁छः	-11.6052
ain	-11.6053
▁स्वास्थ	-11.6059
क्रो	-11.6059
ात्मा	-11.6061
so	-11.6061
▁चुटकी	-11.6061
इसी	-11.6061
▁परिपूर्ण	-11.6063
ाइटिस	-11.6064
IP	-11.6066
▁डरा	-11.6071
ियान	-11.6072
▁हरेक	-11.6073
▁बृहस्पति	-11.6074
▁अनुष्ठान	-11.6075
▁धारावाहिक	-11.6075
▁संतों	-11.6075
▁पुनर्वास	-11.6076
्दा	-11.6078
▁खेर	-11.608
▁वल्लभ	-11.6082
▁कविताएं	-11.6085
▁En	-11.6088
▁बर्ताव	-11.609
▁लश्कर	-11.609
▁story	-11.609
▁राजनेताओं	-11.6094
▁औसतन	-11.6094
ब्बा	-11.6099
▁फ्रेंड	-11.6101
थन	-11.6103
▁अमेठी	-11.6105
ष्य	-11.6105
▁सर्जन	-11.6111
शहर	-11.6116
▁रूपी	-11.6116
▁प्रोड्यूसर	-11.6118
▁अफ्रीकी	-11.612
▁तत्वावधान	-11.612
▁मेमोरी	-11.612
▁पसन्द	-11.612
▁इन्हे	-11.612
▁इंस्ट	-11.6126
▁लात	-11.6127
▁Bi	-11.6128
इंड	-11.6132
▁बरतने	-11.6134
▁अथॉरिटी	-11.6135
▁अपेक्षित	-11.6135
▁चूँकि	-11.6135
▁होड़	-11.6135
▁दत्ता	-11.6135
land	-11.6137
▁रिज	-11.6137
▁ईशान	-11.6138
वेन	-11.6138
▁बीएसपी	-11.614
▁राशिद	-11.614
gra	-11.6143
▁राष्ट्रवादी	-11.6144
▁थमा	-11.6145
▁दीवाना	-11.6149
▁उत्तेजना	-11.615
▁चुनिंदा	-11.615
▁प्रतिनिधिमंडल	-11.6151
▁शुरूआती	-11.6151
uch	-11.6151
▁प्रक्रियाओं	-11.6151
▁पीडि़त	-11.6154
▁रूपों	-11.6154
धारकों	-11.6155
▁pre	-11.6155
▁धुल	-11.6163
▁भगवती	-11.6163
ung	-11.6164
कमल	-11.6164
▁Article	-11.6165
▁वैष्णव	-11.6165
▁दीनदयाल	-11.6165
▁आजमगढ़	-11.6166
▁डेली	-11.6168
फान	-11.6169
▁बिंद	-11.6171
▁एमडी	-11.6172
▁उलझन	-11.6173
▁time	-11.6173
िन्द	-11.6175
▁सीसी	-11.6176
▁Is	-11.6177
▁निष्	-11.6177
ika	-11.6178
-2017	-11.6178
▁भ्रूण	-11.618
▁भिजवा	-11.618
▁खट्टर	-11.618
top	-11.6181
▁तारों	-11.6182
तला	-11.6185
▁बयां	-11.6189
यानी	-11.6194
▁लिखता	-11.6195
▁बेंगलुरू	-11.6195
▁प्रचलन	-11.6195
▁पहेली	-11.6195
▁He	-11.6195
ुल्ला	-11.6196
रोन	-11.6197
ings	-11.6199
▁बिट	-11.62
▁हस्तियों	-11.6201
गीत	-11.6201
▁1980	-11.6201
▁कराता	-11.6206
▁गांगुली	-11.621
▁पुतिन	-11.621
▁सत्याग्रह	-11.621
▁सामर्थ्य	-11.621
▁सर्प	-11.621
▁दावों	-11.6211
स्वरूप	-11.6218
उदयपुर	-11.6219
▁खींचने	-11.6222
▁बुलाने	-11.6222
▁कच्ची	-11.6225
▁विसर्जन	-11.6226
▁झुलस	-11.6226
▁गोवर्धन	-11.6226
मद	-11.6227
▁नोकिया	-11.6228
लीन	-11.623
▁गोचर	-11.623
.25	-11.623
▁क़ा	-11.6231
▁आमजन	-11.6234
▁जॉ	-11.6234
▁पद्मावत	-11.6235
रोम	-11.6236
▁Ex	-11.6237
▁गायों	-11.6237
▁वनस्पति	-11.624
बीटी	-11.624
ca	-11.624
▁अधिवेशन	-11.6241
▁पलक	-11.6243
बॉ	-11.6244
▁बेचैनी	-11.6246
वर्त	-11.625
सम्मान	-11.6251
ाला	-11.6251
शंस	-11.6252
▁कमांड	-11.6254
▁पितृ	-11.6256
▁कैंपस	-11.6258
▁पीएचडी	-11.6259
▁ठोक	-11.6259
▁परेड	-11.626
▁बांदा	-11.626
▁180	-11.6261
▁कर्मों	-11.6261
▁क्रय	-11.6265
चौ	-11.6265
▁बनावट	-11.6266
▁गाते	-11.6268
▁क्रोम	-11.6268
▁ko	-11.6269
▁लार	-11.6269
ऐसे	-11.6269
▁crime	-11.6271
▁लुधियाना	-11.6271
▁सावित्री	-11.6271
▁गोलियों	-11.6273
▁1984	-11.6274
▁कीड़े	-11.6276
▁गजब	-11.6278
▁सानिया	-11.6279
▁Su	-11.6279
लोग	-11.6281
▁एप्लिकेशन	-11.6286
▁मधेपुरा	-11.6286
▁थरूर	-11.6287
▁तरुण	-11.6287
मार्क	-11.6288
वर्ड	-11.6288
ama	-11.6288
SP	-11.6289
▁कूट	-11.629
▁पंचम	-11.6291
▁साब	-11.6293
स्स	-11.6294
▁3000	-11.6299
▁छोड़ते	-11.63
▁बेदी	-11.63
▁गुवाहाटी	-11.6302
▁डिप्रेशन	-11.6302
▁द्रविड़	-11.6302
▁प्रदूषित	-11.6302
▁सराहनीय	-11.6302
▁स्पिन	-11.6303
▁परेशानियां	-11.6304
▁मेगा	-11.6304
▁बढाने	-11.6304
बत	-11.6305
हें	-11.6306
▁इंसाफ	-11.6306
▁निपट	-11.6311
▁स्वदेशी	-11.6312
▁प्लेस	-11.6312
▁दुकानदारों	-11.6312
फॉर्म	-11.6313
ft	-11.6314
▁व्याख्यान	-11.6314
▁सुनाने	-11.6315
ace	-11.6317
▁मित्तल	-11.6317
▁नोबेल	-11.6317
▁ढल	-11.6318
्दे	-11.6319
िब	-11.6319
▁ग्रेजुएट	-11.6323
▁बालू	-11.6325
▁निखार	-11.6326
▁बंट	-11.633
▁सूर	-11.6332
▁कमबख्त	-11.6332
▁डिलीट	-11.6332
▁राधिका	-11.6333
▁भावी	-11.6333
▁सिरदर्द	-11.6334
▁पत्ता	-11.6335
▁जल्दबाजी	-11.6335
▁89	-11.6335
▁स्विच	-11.6341
मरी	-11.6342
2014	-11.6342
▁संघीय	-11.6344
▁गांधीजी	-11.6344
▁अल्पसंख्यकों	-11.6346
▁हज़ारों	-11.6346
▁जाएँगे	-11.6347
▁अस्थमा	-11.6348
▁रक्षाबंधन	-11.6348
▁डरते	-11.6349
▁1991	-11.635
▁विंग	-11.6353
क्सी	-11.6357
हाई	-11.6357
्टा	-11.6359
▁उम्मीदों	-11.6359
कौन	-11.6362
▁नाली	-11.6366
▁शह	-11.6366
.12	-11.6366
वाँ	-11.6366
▁कथाओं	-11.6367
पन्न	-11.6369
▁Data	-11.6371
एएस	-11.6372
▁भावों	-11.6376
▁अछि	-11.6379
▁सुलभ	-11.6379
▁छे	-11.6379
▁इकबाल	-11.6379
▁गौड़	-11.6379
▁कागजात	-11.6379
▁मीठी	-11.638
▁हिसार	-11.638
BC	-11.638
▁यंग	-11.6383
▁बिच	-11.6385
विध	-11.6385
▁छान	-11.6385
▁असुर	-11.6386
▁96	-11.6389
▁दिव्या	-11.6389
▁पूर	-11.6391
bh	-11.6392
▁फिल्मकार	-11.6392
▁चतुर	-11.6394
▁गश्त	-11.6396
अस	-11.6402
विमर्श	-11.6404
▁Raj	-11.6404
▁बीएसई	-11.6406
रेज	-11.6406
▁ro	-11.6407
ame	-11.6408
▁आपूर्तिकर्ता	-11.6408
▁रचनाकार	-11.6408
▁आरटीआई	-11.6409
▁एजेंडा	-11.641
▁सूर्योदय	-11.641
▁जातिवाद	-11.6411
पांच	-11.6412
▁खुदरा	-11.6416
▁कदमों	-11.6417
गाह	-11.6418
ans	-11.6421
IL	-11.6422
▁नंगे	-11.6422
राई	-11.6422
▁सूचनाओं	-11.6422
▁दाढ़ी	-11.6425
▁दामाद	-11.6426
▁तबादला	-11.6428
▁बिलियन	-11.6429
▁वक्ता	-11.643
▁डिश	-11.6433
▁साख	-11.6434
dy	-11.6435
▁विक्रेता	-11.6438
▁भड़ास	-11.644
▁मोटापे	-11.6441
ks	-11.6441
▁ज़िम्मेदारी	-11.6442
▁1997	-11.6443
ल्क	-11.6444
▁पीडीपी	-11.6445
▁लगाती	-11.6448
▁क्लासिक	-11.6448
▁तारे	-11.645
▁कैदी	-11.6455
▁प्रकोप	-11.6456
▁रमजान	-11.6456
▁हटाकर	-11.646
▁मुश्किलों	-11.6461
बन्ध	-11.6462
नहीं	-11.6464
विधान	-11.6468
मिला	-11.6469
▁छो	-11.647
▁Videos	-11.647
षी	-11.647
▁टारगेट	-11.6471
▁साबुन	-11.6472
▁कत्ल	-11.6472
▁कुम्भ	-11.6473
▁चारो	-11.6473
जाम	-11.6474
▁बनीं	-11.6477
▁क्लो	-11.6479
▁साधनों	-11.6479
▁चढ़कर	-11.6481
▁जमात	-11.6483
▁खुदकुशी	-11.6487
▁निःशुल्क	-11.6487
सामने	-11.6491
▁ख़ा	-11.6492
▁मान्यताओं	-11.6493
एसपी	-11.6493
▁रोड़	-11.6495
▁रौशनी	-11.65
▁नासा	-11.65
▁तालिका	-11.65
▁त्योहारों	-11.6502
▁बजरंगी	-11.6502
▁अनोखी	-11.6503
▁मतगणना	-11.6503
▁संकोच	-11.6503
रेशन	-11.6503
▁पाटिल	-11.6503
▁डाक्टरों	-11.6506
▁समूचे	-11.6508
▁डार्क	-11.6508
▁जीडीपी	-11.6509
▁इफेक्ट	-11.6512
सभी	-11.6513
▁भिगो	-11.6514
700	-11.6515
▁मंगा	-11.6518
▁मोबाईल	-11.6518
▁खुलेआम	-11.6519
▁प्रवचन	-11.6519
ors	-11.652
▁स्वर्गीय	-11.6523
chi	-11.6523
▁130	-11.6523
लिम	-11.6524
ावधि	-11.6525
हरि	-11.6526
▁बेक	-11.6527
ोत्तर	-11.6529
▁मौखिक	-11.6534
▁about	-11.6534
▁स्वत	-11.6536
ec	-11.6536
▁तबाह	-11.6537
▁ग्रेट	-11.654
न्नू	-11.6541
ॉर	-11.6542
फ्ल	-11.6543
▁गोप	-11.6544
▁उत्सुकता	-11.6545
लियों	-11.6546
▁मंड	-11.6547
र्ध	-11.6548
आरसी	-11.6549
▁बुमराह	-11.655
▁स्थानांतरण	-11.655
▁समाजसेवी	-11.655
▁फ्लैश	-11.655
▁मर्डर	-11.6551
▁दरगाह	-11.6551
▁92	-11.6552
▁त्र	-11.6553
प्रेस	-11.6555
▁sp	-11.6556
बूझ	-11.6558
▁मसल	-11.656
▁यों	-11.656
▁सोनाली	-11.6561
▁महाराणा	-11.6565
▁वाल्मीकि	-11.6565
▁मुबारक	-11.6566
▁चालान	-11.6569
त्ते	-11.6569
ther	-11.6571
▁खबरे	-11.6574
▁बीजों	-11.6574
▁लोट	-11.6574
▁कुरान	-11.6576
त्थ	-11.6576
▁अट	-11.6578
▁कसा	-11.6578
▁दंगल	-11.6578
▁download	-11.6581
▁कोलेस्ट्रॉल	-11.6581
▁पिघल	-11.6581
▁बांधकर	-11.6582
▁शस्त्र	-11.6582
▁निशुल्क	-11.6583
▁गंदा	-11.6585
▁ज़्यादातर	-11.6585
डक	-11.6588
▁बोलती	-11.6592
ala	-11.6597
▁स्त्रोत	-11.6597
▁कयास	-11.6597
▁बृहस्पतिवार	-11.6598
▁जाओगे	-11.6605
आईटी	-11.6608
fa	-11.6609
▁बेटियां	-11.6613
ोदय	-11.6615
क्चर	-11.6615
नए	-11.6615
▁संभवतः	-11.6616
▁प्रकाशक	-11.6617
▁छंद	-11.6617
सीआई	-11.6617
▁SSC	-11.662
.15	-11.662
eh	-11.6624
▁गुजरना	-11.6624
▁लख	-11.6625
फै	-11.6627
सौ	-11.6628
▁कलकत्ता	-11.6628
▁तात्पर्य	-11.6628
▁फर्नीचर	-11.6628
▁महमूद	-11.6628
▁हैंडसेट	-11.6628
पत्ति	-11.6631
▁गंदे	-11.6632
जिया	-11.6634
▁इन्फ	-11.6634
िं	-11.6634
▁शंख	-11.6635
▁उपयोगिता	-11.6637
▁बुजुर्गों	-11.6639
▁बीएस	-11.6643
ान्वित	-11.6644
▁मत्स्य	-11.6644
▁अवध	-11.6646
▁स्किल	-11.6647
ration	-11.6647
pi	-11.6648
▁क्रे	-11.6649
▁दुर	-11.665
ढ़े	-11.6654
मूर्ति	-11.6655
▁ज्	-11.6657
ुष	-11.6659
▁बेब	-11.666
पीठ	-11.666
▁आश्चर्यजनक	-11.666
▁जिम्मा	-11.6661
त्स	-11.6661
▁एलजी	-11.6662
▁डीडी	-11.6664
▁सेटिंग	-11.6664
▁Dis	-11.6665
▁औरतें	-11.6666
▁उठती	-11.6666
▁नाला	-11.6669
ैप	-11.6669
▁बदलता	-11.6669
्ध	-11.667
▁शाखाओं	-11.6671
▁si	-11.6671
▁पत्थरों	-11.6672
▁आैर	-11.6674
▁कंटेस्टेंट	-11.6676
▁एन्	-11.6676
▁कूल	-11.6679
तृ	-11.668
फ़े	-11.668
▁दिखायी	-11.6681
line	-11.6683
गला	-11.6687
मात्र	-11.669
केश	-11.6691
▁सड़कें	-11.6693
▁खानपान	-11.6698
▁गलियों	-11.6699
▁फैलने	-11.6704
▁आसिफ	-11.6705
▁नॉ	-11.6706
▁सहला	-11.6707
▁भौगोलिक	-11.6708
▁थिएटर	-11.6708
▁संभवत	-11.6709
▁वायदा	-11.671
▁128	-11.6713
दर्द	-11.6715
तन्त्र	-11.6715
व्या	-11.6718
▁CM	-11.6722
▁political	-11.6724
▁वांछित	-11.6724
▁आजीविका	-11.6724
▁पिस्टल	-11.6724
▁रायबरेली	-11.6724
▁शिकस्त	-11.6724
▁गुमराह	-11.6724
▁जानबूझकर	-11.6727
▁मनमानी	-11.6728
▁जलाकर	-11.6733
▁पायेंगे	-11.6734
क्योंकि	-11.6736
▁Te	-11.6738
▁मज़दूर	-11.674
मित्र	-11.674
▁क्वीन	-11.6741
▁पन्ने	-11.6741
▁जड़ी	-11.6741
▁तान	-11.6741
▁गाड़ियां	-11.6741
▁११	-11.6745
▁छठी	-11.6751
▁किस्सा	-11.6751
▁चालकों	-11.6753
सीमा	-11.6753
▁link	-11.6755
▁आवागमन	-11.6756
▁सौन्दर्य	-11.6756
▁चाइना	-11.6756
▁शारदा	-11.6756
▁मेहंदी	-11.6756
▁टेलीफोन	-11.6756
▁टेक्सास	-11.6756
▁छलांग	-11.6756
▁सूखी	-11.6757
▁खुर	-11.6758
▁कसम	-11.676
▁राजकुमारी	-11.6761
AC	-11.6761
▁कृषक	-11.6763
▁2022	-11.6763
▁थो	-11.6763
RO	-11.6764
▁मेह	-11.6767
▁योगेश	-11.677
▁पूर्वांचल	-11.6772
▁पार्थिव	-11.6772
▁नाश्ते	-11.6772
▁share	-11.6772
बेन	-11.6773
▁बंगला	-11.6774
▁लिप्त	-11.6774
▁चिड़िया	-11.6775
▁Photos	-11.6775
ह्	-11.6779
▁राई	-11.6781
▁पहुंचना	-11.6782
OR	-11.6783
▁काटा	-11.6784
▁खरा	-11.6786
▁समझदारी	-11.6786
दाताओं	-11.6786
▁कैंट	-11.6787
▁जनगणना	-11.6788
▁पुर्तगाल	-11.6788
▁वैल्यू	-11.6788
▁रणनीतिक	-11.6788
ंची	-11.6789
▁ब्रेड	-11.6789
तोड़	-11.6789
▁आक्रोशित	-11.6792
▁मुहं	-11.6794
▁रुपयों	-11.6796
▁रिवाज	-11.6796
▁Page	-11.6796
▁सभ्य	-11.6797
▁बीजिंग	-11.6797
▁बिटकॉइन	-11.6804
▁दर्पण	-11.6804
SI	-11.6806
रहित	-11.6808
ren	-11.6809
▁गुणा	-11.6811
▁नानी	-11.6811
▁प्रशंसक	-11.6812
▁कल्प	-11.6815
राह	-11.6815
.08	-11.6815
ब्रि	-11.6815
▁कबड्डी	-11.682
▁जेडीयू	-11.682
▁टर्मिनल	-11.682
▁पटाखों	-11.682
▁उर्वरक	-11.682
▁नसीब	-11.682
▁करोड़पति	-11.6821
▁dr	-11.6823
▁गोरे	-11.6824
▁समितियों	-11.6824
▁पीकर	-11.6825
▁क्षत्रिय	-11.6828
ॉप	-11.6829
▁गुलामी	-11.6829
पात्र	-11.6831
▁सिने	-11.6831
दुर	-11.6832
▁th	-11.6833
▁कुरैशी	-11.6836
/5	-11.6838
ट्रे	-11.6838
▁रहाणे	-11.6839
▁सोया	-11.6842
नौ	-11.6842
▁वात	-11.6842
▁करायी	-11.6842
▁रोमांच	-11.6843
ूरी	-11.6846
▁शासकों	-11.6846
ईं	-11.6849
पीट	-11.6851
▁संपादन	-11.6852
▁इंचार्ज	-11.6852
▁सुविधाजनक	-11.6853
▁दाना	-11.6853
्फ	-11.6854
सै	-11.6854
▁खरीदें	-11.6855
▁मरा	-11.6857
▁विकेटकीपर	-11.6861
▁बचाना	-11.6863
नामा	-11.6866
▁बदायूं	-11.6868
▁येदियुरप्पा	-11.6868
▁हरियाली	-11.6868
▁This	-11.6869
▁स्टार्टअप	-11.6869
▁कहो	-11.6871
▁भेजना	-11.6873
चक्र	-11.6874
▁धड़	-11.6875
▁लिखें	-11.6875
ाश	-11.6875
▁लाला	-11.688
ंख	-11.6883
बदल	-11.6883
ोसिस	-11.6884
जीवी	-11.6884
शियल	-11.6884
▁महापौर	-11.6885
▁टुकड़ों	-11.6885
▁गोरी	-11.6885
▁भत्ता	-11.6886
मिनी	-11.6888
▁व्या	-11.6893
▁रामपाल	-11.6895
▁पेर	-11.6898
▁खि	-11.69
▁Basic	-11.6901
▁धमाका	-11.6901
▁सत्संग	-11.6901
▁पुरस्कृत	-11.6901
ES	-11.6901
▁सहेज	-11.6902
▁विनिर्माण	-11.6902
भक्त	-11.6902
▁सत्ताधारी	-11.6904
▁लम्बाई	-11.6907
▁आलोचक	-11.6909
▁गोपनीयता	-11.691
▁नाभि	-11.6911
▁इक्	-11.6914
▁जकड़	-11.6917
▁ऑफिशियल	-11.6917
▁ताल्लुक	-11.6917
जार	-11.6917
▁]	-11.6919
▁fa	-11.6922
कड़	-11.6925
▁गिन	-11.6926
गड़	-11.6929
▁घिरे	-11.6933
▁हजरत	-11.6934
▁भाटिया	-11.6934
▁दुष्ट	-11.6938
press	-11.6941
▁मूंग	-11.6941
▁संकेतों	-11.6944
▁छिप	-11.6948
OS	-11.6949
▁वैद्य	-11.695
हाय	-11.6955
पश्चिम	-11.6956
ल्लू	-11.6958
▁mi	-11.6959
ल्प	-11.6963
▁मैक्	-11.6964
▁निरन्तर	-11.6966
▁पीएनबी	-11.6966
▁मेघ	-11.6967
▁बंदर	-11.6967
▁ब्रह्माण्ड	-11.6968
णे	-11.6971
ख्त	-11.6974
▁पापों	-11.6975
▁अफेयर	-11.6975
▁cr	-11.6975
ally	-11.6975
▁नायिका	-11.6976
०००	-11.6976
▁गणेशजी	-11.6977
▁SC	-11.6978
ाहट	-11.6979
▁सूप	-11.6982
▁खुशखबरी	-11.6982
▁स्नातकोत्तर	-11.6983
▁निराकरण	-11.6983
▁एडवांस	-11.6983
▁इर्द	-11.6986
MP	-11.6986
छी	-11.6989
▁10000	-11.699
ंता	-11.699
▁शीला	-11.6991
▁बहती	-11.6992
िंस	-11.6992
ल्ह	-11.6993
बिट	-11.6993
▁उबर	-11.6994
दूत	-11.6994
▁मिर्जा	-11.6995
▁कविताएँ	-11.6995
ूक	-11.6996
▁भूखे	-11.6996
▁गाडी	-11.6997
▁account	-11.6999
▁haryana	-11.6999
▁क्रोएशिया	-11.6999
▁बायोपिक	-11.6999
▁मिथिला	-11.6999
बैंक	-11.7
▁मांझी	-11.7
▁ईमान	-11.7002
▁पित्त	-11.7002
▁बीएसए	-11.7003
मण्डल	-11.7005
▁चुनी	-11.7005
ध्या	-11.7006
▁हस	-11.701
मेरा	-11.7013
▁रश्मि	-11.7015
▁ज़िक्र	-11.7016
▁भैरव	-11.7016
▁नौका	-11.7016
गरा	-11.7019
▁लौंग	-11.7021
▁आज़म	-11.7022
ायण	-11.7025
वर्धक	-11.7026
▁अनुकूलित	-11.7027
ल्यूशन	-11.7029
▁नंगी	-11.7031
▁रेखांकित	-11.7032
▁दोगुना	-11.7032
▁ड्र	-11.7032
कॉमर्स	-11.7032
▁शंका	-11.7033
▁राष्ट्रमंडल	-11.7034
▁वंदना	-11.7036
▁एलि	-11.7036
▁दौड़ा	-11.7036
▁कगार	-11.7038
▁सिखाने	-11.704
▁लगाता	-11.704
▁शेड	-11.704
▁बनाएंगे	-11.704
▁गाव	-11.7041
Tr	-11.7043
▁बेसन	-11.7043
▁मिनटों	-11.7046
ाएंगे	-11.7046
▁तीज	-11.7047
मारी	-11.7048
▁बॉयफ्रेंड	-11.7048
▁राठौर	-11.7048
्बा	-11.7049
▁मटर	-11.7052
▁अतिथियों	-11.7054
▁महासंघ	-11.7059
लंब	-11.706
▁मुफ्ती	-11.7061
▁नवाजा	-11.7062
▁टेल	-11.7062
▁चलाकर	-11.7063
बात	-11.7063
▁सिफारिशों	-11.7063
oss	-11.7064
▁WWE	-11.7065
▁कुख्यात	-11.7065
▁गुड़गांव	-11.7065
▁उतरा	-11.7066
▁Ca	-11.7068
▁सभापति	-11.7069
▁आन	-11.7069
▁महाकाल	-11.7072
▁ऊँ	-11.7072
वली	-11.7075
▁RT	-11.7076
▁वज़न	-11.7079
▁स्म	-11.708
▁अधूरा	-11.7081
▁रेस्तरां	-11.7081
▁हांगकांग	-11.7081
▁हुड्डा	-11.7082
▁सिंग	-11.7082
▁डेबिट	-11.7082
▁चिप	-11.7084
▁मिलावट	-11.7088
▁पहनना	-11.7089
▁उद्धार	-11.7089
▁इमारतों	-11.709
▁कामुक	-11.7095
▁जागृत	-11.7095
▁हमलोग	-11.7096
▁दरोगा	-11.7098
▁नाट्य	-11.7098
▁शंकराचार्य	-11.7098
▁साइट्स	-11.7099
▁My	-11.71
न्दर	-11.7103
▁बर्न	-11.7104
▁जनाब	-11.7105
बेट	-11.7105
gen	-11.7107
▁कीर्ति	-11.7108
ंन	-11.7111
र्श	-11.7113
▁राठौड़	-11.7114
▁गैलरी	-11.7116
ज़ल	-11.7117
तरा	-11.712
▁चिन्हित	-11.712
स्सी	-11.7121
▁डांट	-11.7122
ake	-11.7123
▁जिन्हे	-11.7123
▁फ्रिज	-11.7124
SA	-11.7124
▁गोपी	-11.7126
▁AM	-11.7126
/2018	-11.7129
▁संविदा	-11.7131
▁Bo	-11.7131
▁आरामदायक	-11.7132
▁here	-11.7132
▁File	-11.7132
▁आदेशों	-11.7135
▁उड़ाने	-11.7136
app	-11.7136
SC	-11.714
▁वृ	-11.7144
put	-11.7144
▁अनजाने	-11.7144
▁अप्र	-11.7144
▁मची	-11.7145
फ्	-11.7146
▁अमेजन	-11.7147
▁छुट्टियां	-11.7147
▁भयभीत	-11.7147
▁हारने	-11.7149
mar	-11.715
▁हिन्द	-11.715
▁Share	-11.7152
▁ख़ुश	-11.7152
▁नन्द	-11.7153
▁होंठों	-11.7154
पोर्ट	-11.7154
▁डिटेल	-11.7158
▁झड़प	-11.7158
ोरेट	-11.7159
▁कैम्प	-11.7159
▁हेमा	-11.7161
▁Per	-11.7162
▁बचाए	-11.7162
5,000	-11.7164
GN	-11.7164
▁मशक्कत	-11.7164
▁माइक्रोसॉफ्ट	-11.7164
▁औषधीय	-11.7165
▁टास्क	-11.7166
द्दी	-11.7167
▁पैंट	-11.7168
गरी	-11.7169
gg	-11.7169
mu	-11.7173
▁अपमानित	-11.7173
▁टूटा	-11.7173
केंद्र	-11.7173
नाग	-11.7173
▁रिपोर्टिंग	-11.7174
▁डूबने	-11.7176
▁सरलता	-11.7179
महिला	-11.718
▁रुकावट	-11.7181
▁गोविन्द	-11.7181
▁Shiksha	-11.7182
ey	-11.7184
दरा	-11.7185
वैसे	-11.7185
ेश्वरी	-11.7187
▁धनुष	-11.7189
▁इनपुट	-11.7189
▁बजाज	-11.719
▁कल्चर	-11.7195
दक्षिण	-11.7196
▁खे	-11.7197
▁सशक्तिकरण	-11.7198
▁सिद्दीकी	-11.7198
▁मिथक	-11.7198
▁अफ़	-11.7199
वाचक	-11.72
▁पुराणों	-11.7201
▁जद	-11.7202
सीआर	-11.7202
▁निर्वाह	-11.7203
ट्टे	-11.7205
▁नेटवर्किंग	-11.7205
▁कार्यक्षेत्र	-11.7205
▁जोंग	-11.7205
MI	-11.7208
▁ऐक्ट	-11.7208
▁झर	-11.7209
्टो	-11.721
▁ब्रश	-11.721
▁झड़ने	-11.7211
▁दंगा	-11.7213
▁दलालों	-11.7213
▁नामित	-11.7214
▁विश्वसनीयता	-11.7214
▁आर्क	-11.7214
▁पांड्या	-11.7214
▁पंडाल	-11.7214
▁मिनिट	-11.7215
▁चंचल	-11.7215
फ़र	-11.7215
▁धमाकेदार	-11.7216
▁शॉप	-11.7216
.18	-11.7216
ps	-11.7216
▁बाबरी	-11.7219
▁सिं	-11.7223
▁कॉमन	-11.7225
▁धरा	-11.7225
▁छुड़ा	-11.7226
▁Up	-11.7226
▁सुझा	-11.7229
शाली	-11.723
▁Internet	-11.7231
▁एडवोकेट	-11.7231
▁चाणक्य	-11.7231
▁बेवजह	-11.7231
▁उद्देश्यों	-11.7232
▁बढती	-11.7232
▁उपभोग	-11.7232
च्चा	-11.7233
▁स्क्र	-11.7234
▁मग	-11.7237
भिन्न	-11.7239
लोचन	-11.724
▁चौथ	-11.7241
▁Wi	-11.7245
वेज	-11.7247
▁फैजाबाद	-11.7248
ess	-11.7252
▁छाल	-11.7254
▁add	-11.7257
▁अमृता	-11.7259
मला	-11.7259
▁गवाही	-11.726
नुसार	-11.7264
▁Channel	-11.7265
▁शाओमी	-11.7265
▁चर्बी	-11.7265
▁संप्रदाय	-11.7265
▁अग्रसर	-11.7266
खान	-11.7266
▁सडक	-11.7266
▁किशोरों	-11.7268
TE	-11.7269
डन	-11.7272
▁चट्टान	-11.7274
▁वीक	-11.7275
CA	-11.7277
aw	-11.7278
▁पुरा	-11.7278
▁एसओ	-11.7281
▁काल्पनिक	-11.7282
▁मुलाक़ात	-11.7282
▁शहादत	-11.7282
▁हथेली	-11.7282
पैड	-11.7283
▁लिवर	-11.7284
थ्र	-11.7285
▁सहजता	-11.729
▁her	-11.7291
▁ढूँढ	-11.7296
▁घिर	-11.7297
रेस	-11.7297
▁उड़ीसा	-11.7299
▁रिटेल	-11.7301
▁ज़िले	-11.7301
▁श्	-11.7303
▁घुसकर	-11.7303
▁सड़	-11.7305
▁बुझा	-11.7306
▁साइ	-11.7307
▁जबर्दस्त	-11.7315
▁बॉम्बे	-11.7315
च्छा	-11.7321
ator	-11.7323
▁अंब	-11.7325
▁मुखर	-11.7328
दोष	-11.7328
▁सुगंध	-11.733
▁डालता	-11.7331
▁आयेंगे	-11.7331
▁झट	-11.7332
▁आकस्मिक	-11.7332
▁इण्डिया	-11.7332
▁Tips	-11.7332
▁हार्डवेयर	-11.7333
लाह	-11.7334
षिकेश	-11.7335
गति	-11.7335
▁कारीगर	-11.7336
ौला	-11.7336
▁सुनाते	-11.7337
▁समावेश	-11.7338
rea	-11.7338
▁नर्सिंग	-11.7339
इसे	-11.7341
▁सांग	-11.7342
▁स्रोतों	-11.7343
▁चतुर्थ	-11.7343
मोन	-11.7343
▁विकृत	-11.7344
▁कोशिशें	-11.7345
▁थानों	-11.7345
▁उर	-11.7347
▁निकायों	-11.7348
इम	-11.7349
्को	-11.7349
▁कस्बा	-11.735
▁खुशियां	-11.735
पैर	-11.7351
▁थोप	-11.7352
▁1995	-11.7354
BS	-11.7354
test	-11.7355
▁समु	-11.7356
▁ख़ुदा	-11.7357
एसए	-11.736
▁इम	-11.7361
एसएल	-11.7361
डों	-11.7363
▁त्रिवेदी	-11.7366
▁सेक्रेटरी	-11.7366
शब्द	-11.7367
▁चित्रकार	-11.7367
▁मिस्टर	-11.7369
▁गढ़वाल	-11.737
my	-11.737
▁कब्र	-11.7372
▁गाँवों	-11.7372
वंशी	-11.7373
▁तटीय	-11.7374
▁घन	-11.7375
▁चांदनी	-11.7375
▁ढह	-11.7375
हड़	-11.7376
▁घुसने	-11.7379
▁जांघ	-11.7381
▁संतुष्टि	-11.7381
▁अनियंत्रित	-11.7383
▁फैसलों	-11.7383
▁बेसब्री	-11.7383
▁हुकूमत	-11.7383
▁एथलीट	-11.7383
▁व्याकरण	-11.7384
▁आकाशवाणी	-11.7384
▁एस्टेट	-11.7385
▁मार्किट	-11.7385
▁सीताराम	-11.7387
▁ढूंढने	-11.739
▁लाईन	-11.7392
▁ड्रिंक	-11.7393
▁वयस्क	-11.7393
▁अरबों	-11.7394
▁क़ि	-11.74
▁निचली	-11.74
▁प्रोसेस	-11.7401
▁मनोबल	-11.7401
▁रक्तदान	-11.7404
पीएफ	-11.7407
एगी	-11.7407
▁टिकी	-11.741
िष	-11.741
▁मप्र	-11.741
▁उद्यमी	-11.7412
▁फ़र	-11.7415
ger	-11.7416
फ्फ	-11.7418
▁ब्राउज़र	-11.7419
▁वेडिंग	-11.7419
▁दै	-11.7419
▁तबके	-11.7419
▁सुई	-11.7422
्फ़	-11.7423
▁ब्लॉगिंग	-11.7425
▁हं	-11.7429
▁अड	-11.7431
दस	-11.7432
ins	-11.7433
▁थप्पड़	-11.7435
▁featured	-11.7435
▁Form	-11.7435
pro	-11.7436
ju	-11.7436
▁महारानी	-11.7436
्रि	-11.7438
▁दर्जे	-11.744
▁बास	-11.744
यंत्र	-11.744
शोर	-11.7442
▁छोड़े	-11.7443
आईएस	-11.7444
▁Mar	-11.7444
▁अक्षम	-11.7444
ऐं	-11.7445
▁बिकने	-11.7446
▁पढ़ता	-11.7446
जहां	-11.7449
ाइजेशन	-11.745
▁कतर	-11.7452
▁क़दम	-11.7452
कर्ण	-11.7453
▁छात्रवृत्ति	-11.7454
ियाल	-11.7456
▁खदान	-11.7457
ata	-11.7464
▁बुझ	-11.7468
▁मैथ	-11.7469
▁परशुराम	-11.7469
▁प्रजनन	-11.7469
▁मीठे	-11.747
▁बरसा	-11.747
▁सहेली	-11.747
▁गांठ	-11.747
▁एमबीए	-11.7471
▁क्षेत्रफल	-11.7473
▁दूरदर्शन	-11.7473
▁मुर	-11.7474
▁एमएम	-11.7475
▁लेबल	-11.748
▁योगा	-11.7483
िनो	-11.7484
ुरा	-11.7484
▁निषेध	-11.7486
▁क्लर्क	-11.7486
▁फिगर	-11.7488
yo	-11.7491
3)	-11.7492
▁(3)	-11.7492
▁पायेगा	-11.7493
▁बाइ	-11.7495
▁हथ	-11.7497
▁मशीनरी	-11.7497
श्रम	-11.7498
▁सैल	-11.75
▁Book	-11.7502
आन	-11.7503
▁Bitcoin	-11.7503
▁रोजमर्रा	-11.7503
▁पुतला	-11.7504
हेल	-11.7504
▁आदी	-11.7504
▁उभार	-11.7505
▁लोभ	-11.7506
▁शवों	-11.7506
▁चुत	-11.7506
लोगों	-11.7507
DA	-11.7507
▁प्रयोजन	-11.7507
▁त्रासदी	-11.751
eng	-11.7513
▁Continue	-11.7515
▁पंचायती	-11.7515
▁मिलाने	-11.7516
कुंड	-11.7517
▁यूज़	-11.7518
्रेशन	-11.7519
▁August	-11.7521
▁असंतोष	-11.7521
▁मोमबत्ती	-11.7521
▁ख्याति	-11.7521
▁गणराज्य	-11.7521
▁गर्भपात	-11.7521
▁स्वीकार्य	-11.7525
▁हराम	-11.7527
सर्व	-11.753
▁बाइबल	-11.753
टीएस	-11.7533
▁निगल	-11.7536
▁एंबुलेंस	-11.7538
▁कैपिटल	-11.7538
▁मालदीव	-11.7538
▁शक्कर	-11.7538
▁दयाल	-11.7543
▁रामचंद्र	-11.7543
डियो	-11.7546
▁मोटर्स	-11.7548
मती	-11.7549
▁पहचाना	-11.7551
▁कांटे	-11.7551
.05	-11.7552
▁मानहानि	-11.7555
▁स्टॉप	-11.7556
▁गोमती	-11.7556
▁डोमेन	-11.7556
▁सुनहरे	-11.7557
▁pic	-11.7557
▁बेस्ड	-11.7557
▁चौबे	-11.7559
▁हाफिज	-11.7559
▁करंट	-11.7561
▁per	-11.7562
▁काबिज	-11.7563
▁दामन	-11.7564
दह	-11.7564
▁प्रत्या	-11.7564
▁पेंटी	-11.7566
खन	-11.7566
▁वारंट	-11.757
▁पीजी	-11.757
क़्	-11.7572
▁online	-11.7573
▁इक्विटी	-11.7573
▁लाइब्रेरी	-11.7573
▁शिक्षिका	-11.7573
▁पन्नों	-11.7573
▁कैशबैक	-11.7573
▁भीख	-11.7573
▁परिधान	-11.7574
▁पालीवाल	-11.7574
▁हीरोइन	-11.7575
काश	-11.7576
▁al	-11.7576
BI	-11.7579
टु	-11.7579
▁फर्	-11.7582
▁कॉलिंग	-11.7582
▁सरोकार	-11.7584
▁करवाते	-11.7585
▁प्राणियों	-11.7587
▁बंधु	-11.7588
▁शौकीन	-11.7591
row	-11.7592
▁गंग	-11.7592
▁सँ	-11.7596
▁लुट	-11.7596
आदि	-11.7597
शिक्षा	-11.7601
स्कोप	-11.7602
▁अध्यात्म	-11.7603
▁बेचैन	-11.7603
▁1950	-11.7607
▁am	-11.7607
▁सिसोदिया	-11.7608
▁स्लाइड	-11.7608
▁सेमिनार	-11.7608
▁फ़ैसला	-11.7608
र्फ	-11.7609
▁जुड	-11.7609
▁राज़	-11.761
▁कल्याणकारी	-11.7612
▁गगन	-11.7613
जाद	-11.7614
▁सीरीज़	-11.7615
▁शासनकाल	-11.7615
▁भुगत	-11.7618
रियो	-11.762
▁अच्छाई	-11.762
बाब	-11.7622
tive	-11.7624
▁UPTET	-11.7625
▁अय्यर	-11.7625
▁इलेवन	-11.7625
▁अधूरी	-11.7625
▁तीनो	-11.7625
▁144	-11.7626
▁Road	-11.7626
मंदिर	-11.7626
फ्त	-11.7629
▁तलाशने	-11.7631
▁गोपनीय	-11.7633
ition	-11.7634
▁---	-11.7635
नाल	-11.7635
हाउस	-11.7637
▁पीएच	-11.7639
▁कॉम्प	-11.764
रेट	-11.7642
▁September	-11.7642
▁फ़रवरी	-11.7643
▁go	-11.7645
▁चटनी	-11.7647
▁चुदवा	-11.7648
uotes	-11.7649
▁गलतियां	-11.765
▁सॉफ्ट	-11.7651
▁पिंड	-11.7651
▁get	-11.7654
प्रदान	-11.7654
▁खोया	-11.7655
▁अन्	-11.7658
ati	-11.7658
▁खरे	-11.7659
▁मिजोरम	-11.766
▁रिटायर्ड	-11.7661
▁भोले	-11.7662
▁प्रस्थान	-11.7663
स्तु	-11.7663
हिल	-11.7663
og	-11.7664
▁रामेश्वर	-11.7664
▁टल	-11.7666
▁विफलता	-11.7666
रेखा	-11.7671
▁फ्लू	-11.7671
व्यापी	-11.7673
▁कमरों	-11.7675
▁खोली	-11.7676
▁विनीत	-11.7677
▁मद्रास	-11.7678
ंगो	-11.7678
▁चौंका	-11.7679
▁दीपा	-11.7679
▁अनन्त	-11.768
▁खोने	-11.7681
▁पडा	-11.7682
ED	-11.7683
▁तत्पर	-11.7687
ram	-11.7687
▁बनायें	-11.7687
विल	-11.7688
▁रघु	-11.7689
out	-11.7691
▁मास्क	-11.7692
▁टाइटल	-11.7692
▁ट्रीटमेंट	-11.7695
▁छापे	-11.7697
▁लौह	-11.7698
▁गद्य	-11.7698
▁ब्रह्मांड	-11.7698
▁जोड़ना	-11.77
▁नौजवानों	-11.77
▁छी	-11.7701
▁कुएं	-11.7705
▁वरीयता	-11.7706
▁बेह	-11.7708
▁बांटा	-11.7709
▁Du	-11.7711
▁अश्विनी	-11.7712
▁बल्ब	-11.7712
पट्ट	-11.7712
▁ग्रसित	-11.7713
▁टैबलेट	-11.7713
ृष्ट	-11.7716
iya	-11.7718
सेना	-11.7722
▁आदम	-11.7723
▁खामोश	-11.7724
▁Da	-11.7725
▁विमोचन	-11.773
▁ड्रोन	-11.7731
▁पतंग	-11.7731
▁डिफ	-11.7734
▁दमकल	-11.7734
▁wi	-11.7735
▁ड्रग्स	-11.7737
▁झो	-11.7737
▁ड्रॉ	-11.7739
सिंग	-11.7739
टीवी	-11.774
पार्ट	-11.7743
थु	-11.7743
▁कराएं	-11.7744
HO	-11.7746
▁आत्मघाती	-11.7748
▁आयरलैंड	-11.7748
▁गड्ढे	-11.7748
▁बुंदेलखंड	-11.7748
▁आंगनबाड़ी	-11.7748
▁सम्प्रदाय	-11.7748
अधिक	-11.7748
▁बेडरूम	-11.7748
▁जुर्म	-11.7749
एँगे	-11.7756
ब्रा	-11.7757
▁नाप	-11.7758
▁फॉ	-11.7758
rd	-11.7759
ada	-11.776
▁खर्चे	-11.7764
▁हकदार	-11.7765
▁सुशांत	-11.7766
▁श्रृंगार	-11.7766
▁नामजद	-11.7766
▁कास्ट	-11.7767
▁सैक्स	-11.7768
▁हसीन	-11.777
▁हटकर	-11.7771
▁जोड	-11.7772
▁girl	-11.7774
ंडो	-11.7774
सूर	-11.7777
▁जासूस	-11.7778
ाड	-11.778
▁कैथ	-11.7781
▁पत्रिकाओं	-11.7782
▁स्प्रे	-11.7782
▁इलेक्ट्रॉनिक्स	-11.7783
▁पठान	-11.7783
▁ओवैसी	-11.7783
▁रवैये	-11.7783
▁सोवियत	-11.7783
▁हफ्तों	-11.7783
▁Search	-11.7783
▁मुस्करा	-11.7784
▁अपग्रेड	-11.7784
▁शिवजी	-11.7785
▁पीटर	-11.7785
▁लाभार्थियों	-11.7785
▁उद्योगपति	-11.7786
▁पोखर	-11.7786
कुट	-11.7791
PSC	-11.7793
▁पिक्चर	-11.7794
ज्जा	-11.7795
▁मारते	-11.7797
▁घुम	-11.7798
▁पाय	-11.7798
▁मेहरा	-11.7799
▁श्राद्ध	-11.7801
▁तीखी	-11.7801
वस	-11.7804
▁धनबाद	-11.7806
▁निर्दिष्ट	-11.781
▁यूके	-11.781
▁इंज	-11.781
▁मसला	-11.7811
▁आईपीसी	-11.7812
▁वॉर	-11.7813
▁सामंत	-11.7815
▁चित	-11.7816
स्टन	-11.7817
▁जयललिता	-11.7819
▁मक्खन	-11.7819
▁उज्जवल	-11.7819
▁बराक	-11.7819
▁ठान	-11.782
▁बदतर	-11.782
ध्य	-11.7821
सुबह	-11.7822
▁दर्शाया	-11.7822
▁ओझा	-11.7822
▁ja	-11.7823
▁new	-11.7825
ुवा	-11.7828
▁Comment	-11.7831
▁सहाय	-11.7831
▁चना	-11.7831
▁Khan	-11.7831
विद्या	-11.7836
▁मूंगफली	-11.7837
▁राजनयिक	-11.7837
▁दुष्प्रभाव	-11.7837
▁रीढ़	-11.7841
▁जलने	-11.7842
▁सुश्री	-11.7844
▁मिलाया	-11.7848
क्के	-11.7849
▁तबियत	-11.785
पीएम	-11.785
▁पारस	-11.7851
र्जन	-11.7852
जोर	-11.7853
▁चाही	-11.7854
TI	-11.7855
▁निकाह	-11.7855
▁घंटी	-11.7855
▁कुपोषण	-11.7856
ंकर	-11.7856
ंचल	-11.7857
▁By	-11.7857
▁मैरी	-11.7858
▁एस्	-11.7858
ort	-11.7859
▁फेंका	-11.786
▁एवम	-11.7861
चो	-11.7864
▁अपवाद	-11.7865
▁टर्न	-11.7865
रेटर	-11.7866
ट्रॉ	-11.7867
▁मेथी	-11.7868
▁करुणा	-11.7869
▁भावनाएं	-11.7871
▁बाली	-11.7872
▁गोगोई	-11.7873
▁प्रकोष्ठ	-11.7873
▁परफेक्ट	-11.7873
▁भूटान	-11.7873
▁मराठा	-11.7873
▁रिमोट	-11.7873
4)	-11.7873
ंबा	-11.7875
-14	-11.7875
▁कैंपेन	-11.7876
▁1994	-11.7876
▁धीमा	-11.7876
▁मेरिट	-11.7877
▁आधारभूत	-11.7878
▁मंगवा	-11.7878
रियन	-11.788
कहीं	-11.7881
▁पूछता	-11.7882
वला	-11.7883
▁आठवीं	-11.7888
तिल	-11.7889
▁जूता	-11.789
▁निविदा	-11.789
िजन	-11.7891
प्पी	-11.7891
शाही	-11.7892
▁बेला	-11.7893
किशोर	-11.7893
▁पाले	-11.7893
▁एकाग्रता	-11.7894
▁किसकी	-11.7894
▁नोक	-11.7898
▁थि	-11.7898
▁भव	-11.79
चाल	-11.7901
▁अज्ञान	-11.7902
पीने	-11.7903
▁नु	-11.7903
▁चूर	-11.7908
▁अनगिनत	-11.7908
▁आरजेडी	-11.7908
▁इटावा	-11.7908
▁नमूने	-11.7908
▁अन्तर्राष्ट्रीय	-11.7909
▁सोनाक्षी	-11.7909
▁स्टाइलिश	-11.791
पोषण	-11.7911
▁वेतनमान	-11.7915
डीआर	-11.7917
▁बीएसएफ	-11.7917
▁जड़ों	-11.7918
▁छिपी	-11.792
त्रि	-11.792
▁Ti	-11.7922
▁महि	-11.7922
ii	-11.7923
▁जीजा	-11.7924
▁अवि	-11.7925
▁पहुंचता	-11.7926
▁ne	-11.7928
▁बुलेटिन	-11.7928
▁140	-11.7929
▁1989	-11.793
▁Best	-11.7932
▁खाती	-11.7936
▁अब्राहम	-11.7944
▁उस्ताद	-11.7944
▁निष्क्रिय	-11.7944
▁भौ	-11.7946
▁इंक	-11.795
डीपी	-11.795
▁कॉमर्स	-11.7951
▁मिलान	-11.7954
nn	-11.7955
ूँगा	-11.7956
ern	-11.796
▁पुष्कर	-11.7962
▁डूबे	-11.7964
▁चढ़ने	-11.7965
▁बत्ती	-11.7965
▁साक्षरता	-11.7966
ायत	-11.7966
▁मंडरा	-11.7967
▁ऐंड	-11.7975
▁होंडा	-11.7977
sta	-11.7978
▁नवजोत	-11.7981
▁बरत	-11.7981
▁Ni	-11.7982
▁par	-11.7982
▁स्तरों	-11.7983
▁दीवान	-11.7983
▁नारंगी	-11.7983
▁रुद्र	-11.7983
▁मिश्री	-11.7984
ral	-11.7985
▁करनेवाले	-11.7986
युग	-11.7989
याद	-11.7991
खाना	-11.7997
▁बिन्दु	-11.7997
▁किग्रा	-11.7998
twitter	-11.7999
▁स्तम्भ	-11.7999
ैग	-11.7999
▁विक्की	-11.8001
▁क्रूज	-11.8002
▁हमलावरों	-11.8006
ness	-11.8008
लिटी	-11.8011
ग़ा	-11.8014
▁प्रान्त	-11.8015
▁अत्याधुनिक	-11.8017
▁अभूतपूर्व	-11.8017
▁कॉरपोरेट	-11.8017
▁गिरते	-11.8017
▁धरातल	-11.8017
▁पग	-11.8017
▁स्ट्रोक	-11.8017
▁बाड़मेर	-11.8017
▁रियलिटी	-11.8018
▁पाँव	-11.8018
▁प्रचुर	-11.8018
▁द्रव्य	-11.8019
▁समझती	-11.802
▁आदतों	-11.802
स्वा	-11.8021
▁उत्सुक	-11.8022
प्	-11.8024
पहले	-11.8024
▁मर्	-11.8025
.11	-11.8026
-9	-11.8026
▁कारन	-11.8027
ख़्त	-11.8027
▁रखो	-11.8027
▁उड	-11.8028
▁धड़क	-11.8029
▁दिलवा	-11.8029
पेन	-11.803
▁Group	-11.8035
▁प्रतिद्वंद्वी	-11.8035
▁मार्शल	-11.8035
▁मालवीय	-11.8035
▁पैलेस	-11.8036
▁बेचे	-11.8037
▁ठण्ड	-11.8037
▁डायल	-11.8038
▁कार्यभार	-11.8038
▁1971	-11.8039
▁चौबीस	-11.804
▁Gu	-11.8042
/2	-11.8044
▁करेंसी	-11.8044
स्तान	-11.8044
▁स्वीट	-11.8045
▁ढेरों	-11.8046
▁पिछ	-11.8047
▁बल्ले	-11.8049
▁Patrika	-11.8053
▁अप्रत्यक्ष	-11.8053
▁एंडरसन	-11.8053
▁प्रेरक	-11.8053
▁Phone	-11.8053
▁मयंक	-11.8054
▁खजाने	-11.8054
ग्रहण	-11.8056
▁सुनहरा	-11.8056
सरकारी	-11.8058
▁दीक्षा	-11.8063
▁मिल्क	-11.8065
फार्म	-11.8068
▁कांप	-11.8068
▁बड	-11.8068
▁आकांक्षा	-11.8069
▁टाई	-11.8069
▁निकालते	-11.807
उट	-11.8071
परक	-11.8071
▁मानदेय	-11.8071
▁सनसनीखेज	-11.8071
▁घूस	-11.8072
▁नेहरु	-11.8072
▁बढ़ाए	-11.8075
▁जयंत	-11.8075
लियां	-11.8076
र्जी	-11.808
बॉल	-11.8083
▁भूलें	-11.8084
मस	-11.8085
▁लियोन	-11.8085
▁सिवाय	-11.8088
▁उंगलियों	-11.809
▁षड्यंत्र	-11.809
▁Windows	-11.809
▁कंटेनर	-11.809
▁एकेडमी	-11.809
▁उम्दा	-11.809
▁ग्रा	-11.809
▁1:	-11.8091
ko	-11.8091
▁अणु	-11.8092
▁नानक	-11.8092
ton	-11.8092
▁बाट	-11.8094
▁राजग	-11.8098
▁Time	-11.8099
▁जैकेट	-11.81
▁मोम	-11.8105
▁फेम	-11.8106
▁असद	-11.8107
▁भूले	-11.8108
▁ठिकाने	-11.8108
▁सौहार्द	-11.8108
बाज़ी	-11.8108
▁इंस्टॉल	-11.8108
▁एयरलाइंस	-11.8108
▁क्षमताओं	-11.8109
▁जरूरतमंद	-11.8111
▁मुंड	-11.8112
कीय	-11.8112
▁हीरे	-11.8112
▁अभिन्न	-11.8113
▁दिखेगा	-11.8119
लेन	-11.8121
सेल	-11.8123
▁कनेक्टिविटी	-11.8126
▁ठिकाना	-11.8126
▁परिकल्पना	-11.8126
▁महत्वाकांक्षी	-11.8126
▁वोडाफोन	-11.8126
▁पैंट्री	-11.8127
हह	-11.8128
▁हिन्दु	-11.8128
▁अवरोध	-11.8128
uly	-11.8131
hr	-11.8132
▁देशद्रोह	-11.8132
▁दक्ष	-11.8133
AM	-11.8133
▁पड़ोसियों	-11.8134
▁कुन	-11.8137
ene	-11.8137
2015	-11.8138
क़ी	-11.814
नियर	-11.814
ls	-11.8141
▁कमिटी	-11.8143
▁संस्मरण	-11.8145
▁सेमेस्टर	-11.8145
UR	-11.8146
▁आरके	-11.8147
nk	-11.815
ेज़	-11.815
▁मार्गों	-11.8152
लोन	-11.8152
िएट	-11.8152
अर्चना	-11.8152
▁छुआ	-11.8153
cal	-11.8157
▁विवाहित	-11.8157
▁धुंध	-11.8158
▁कुश	-11.8158
▁छिड़क	-11.8158
DE	-11.816
समाज	-11.8161
▁नाराज़	-11.8162
▁मचाया	-11.8163
▁कॉमनवेल्थ	-11.8163
▁परिप्रेक्ष्य	-11.8163
▁चेहरों	-11.8163
▁बस्तियों	-11.8163
▁life	-11.8163
▁अनीता	-11.8164
PA	-11.8165
▁सोमनाथ	-11.8165
▁धमाल	-11.8165
घु	-11.8166
ाणी	-11.8167
▁अंगूर	-11.8168
माया	-11.8174
▁बचाता	-11.8174
यं	-11.8178
वाज	-11.818
▁दाद	-11.818
▁मामी	-11.8181
▁उत्सर्जन	-11.8182
▁राजभवन	-11.8182
▁वियतनाम	-11.8182
▁कैराना	-11.8182
▁अम्ल	-11.8183
▁वीकेंड	-11.8183
▁टपक	-11.8183
▁सिरसा	-11.8185
▁अदालतों	-11.8186
▁धीरज	-11.8187
▁गरमा	-11.8187
▁जरिया	-11.8187
tur	-11.8192
▁दिलाता	-11.8197
लेटर	-11.8197
▁विशेषज्ञता	-11.8198
▁जलवा	-11.8198
EN	-11.8199
▁शोरूम	-11.8199
▁दृश्यों	-11.8199
▁बाण	-11.82
▁आश्रित	-11.82
▁हेल्दी	-11.82
▁हेलमेट	-11.82
▁शोएब	-11.82
▁चटर्जी	-11.82
▁चार्जशीट	-11.82
▁page	-11.8201
▁कूड़े	-11.8201
▁सडक़	-11.8204
▁(18	-11.8204
▁मचाने	-11.8205
▁बिछ	-11.8206
bar	-11.8207
ava	-11.8214
▁लड़े	-11.8217
▁द्व	-11.8218
▁WordPress	-11.8219
▁अप्रत्याशित	-11.8219
▁नुक्सान	-11.8219
▁विवादास्पद	-11.8219
▁संक्रमित	-11.8219
▁आवेदकों	-11.8219
▁GST	-11.822
▁संगीता	-11.8221
▁संवत	-11.8221
▁मालवा	-11.8221
▁रामा	-11.8222
▁भागे	-11.8224
ARP	-11.8225
▁चेकिंग	-11.8225
▁टैंकर	-11.8227
ert	-11.8227
▁अनन्य	-11.823
▁भोला	-11.8232
हों	-11.8232
▁2.0	-11.8234
▁जानेंगे	-11.8236
ina	-11.8237
▁ठिकानों	-11.8237
▁प्रतिस्पर्धी	-11.8237
▁search	-11.8237
▁Bihar	-11.8238
▁पूर्वजों	-11.8238
▁दिक्कतों	-11.8238
NS	-11.8239
▁श्रोताओं	-11.8239
▁अंतरिम	-11.8241
▁उद्यमियों	-11.8243
सं०	-11.8244
aps	-11.8244
▁शाकाहारी	-11.8247
▁खौफ	-11.8248
▁माफ़	-11.8249
जिंग	-11.825
.......	-11.825
▁धू	-11.8252
सेक्स	-11.8252
▁आधुनिकता	-11.8253
घात	-11.8253
▁गवर्नमेंट	-11.8256
▁थियेटर	-11.8256
▁Bharat	-11.8256
▁आंगन	-11.8256
▁टीआरपी	-11.8257
▁व्हील	-11.8257
▁गंदी	-11.8258
▁मज़े	-11.8258
▁असामान्य	-11.8258
lar	-11.8262
tar	-11.8263
cent	-11.8265
▁देसाई	-11.8268
dhi	-11.827
▁समता	-11.8272
▁डेटिंग	-11.8272
▁लेंस	-11.8272
▁आठवें	-11.8272
▁अफगान	-11.8274
▁औरंगजेब	-11.8274
▁परफॉर्मेंस	-11.8275
▁कठुआ	-11.8275
▁संभोग	-11.8275
▁डुअल	-11.8276
▁हदीस	-11.8277
▁रुका	-11.8281
लपुर	-11.8281
▁gr	-11.8284
ज़ार	-11.8284
▁घेरा	-11.8285
ियार	-11.8287
▁ब्रेन	-11.8288
▁ऐप्स	-11.829
▁फेडरेशन	-11.8293
▁स्वीडन	-11.8293
▁कम्पनियों	-11.8293
▁टेलीकॉम	-11.8293
▁2015-16	-11.8294
▁कीचड़	-11.8294
In	-11.8295
कोड	-11.8297
▁डिस्	-11.8298
संबंध	-11.8299
बाड़ी	-11.8299
▁टीजर	-11.83
▁Gra	-11.8302
▁मेजबानी	-11.8303
▁वन्य	-11.8303
▁मित्रता	-11.8303
▁कुशलता	-11.8305
गि	-11.8307
▁ऊँचा	-11.8308
▁इलायची	-11.8312
▁तंबाकू	-11.8312
▁फ़ायदा	-11.8312
▁संगोष्ठी	-11.8312
▁साजिद	-11.8312
▁लुत्फ	-11.8312
हक	-11.8312
▁यहूदी	-11.8312
▁वु	-11.8313
▁यातना	-11.8313
बिहार	-11.8313
▁सघन	-11.8313
rn	-11.8318
▁चिपका	-11.8319
▁102	-11.8319
▁राजनीतिज्ञ	-11.8319
▁पंथ	-11.832
▁केसरी	-11.8321
्मो	-11.8321
▁कसरत	-11.8321
▁भिंड	-11.8324
CC	-11.8326
जेंट	-11.8327
▁शुभकामना	-11.8327
▁पंचमी	-11.8327
▁प्या	-11.8329
get	-11.8329
▁सूचनाएं	-11.8329
▁गणमान्य	-11.8331
▁गैरकानूनी	-11.8331
▁मुआवजे	-11.8331
▁पेटीएम	-11.8331
▁Hi	-11.8332
ship	-11.8334
सत	-11.8335
▁किश्त	-11.8336
▁फोटोग्राफर	-11.8337
tr	-11.8338
▁संपादकीय	-11.8338
▁एमए	-11.8339
▁कलह	-11.834
▁सन्त	-11.8341
▁बैठना	-11.8344
गोल	-11.8345
▁पीओ	-11.8347
▁click	-11.8349
▁वर्कआउट	-11.835
▁फ़ोटो	-11.835
▁टैगोर	-11.835
▁चाहूंगा	-11.835
▁स्टैंडर्ड	-11.835
▁सुनता	-11.8354
dd	-11.8356
▁अजित	-11.8363
हाट	-11.8366
▁खादी	-11.8366
▁प्राणायाम	-11.8368
▁मंदसौर	-11.8368
▁तिहाई	-11.8368
▁वाकिफ	-11.8369
▁दशम	-11.837
शिव	-11.837
▁गहने	-11.8372
ंदी	-11.8373
van	-11.8374
▁पृ	-11.8376
बरी	-11.8377
▁लंग	-11.8377
of	-11.8381
▁परीक्षाएं	-11.8382
रवा	-11.8385
▁शिक्षामित्रों	-11.8385
▁सुचारू	-11.8387
साफ	-11.8387
▁पटकथा	-11.8388
Inter	-11.8389
▁हंसते	-11.8394
▁बत	-11.8405
▁अमान	-11.8405
▁recipe	-11.8406
▁आंवला	-11.8406
▁अंदरूनी	-11.8406
▁रविंद्र	-11.8407
▁बूट	-11.8407
view	-11.8407
▁एर	-11.8407
▁मांगते	-11.8415
▁रीवा	-11.8416
रिन	-11.8419
▁सुहा	-11.842
▁टर्म	-11.8421
ंय	-11.8422
▁da	-11.8423
▁एनसी	-11.8423
▁गुनगुना	-11.8425
▁फेफड़ों	-11.8425
▁Life	-11.8425
▁लूटने	-11.8425
▁भरपाई	-11.8427
eat	-11.8428
▁पायल	-11.8431
▁व्यवसायिक	-11.8433
▁दबाकर	-11.8434
▁big	-11.8436
▁पिस	-11.8441
▁वाइस	-11.8442
▁अपार्टमेंट	-11.8444
▁दबदबा	-11.8444
▁प्रख्यात	-11.8444
▁कीटनाशक	-11.8444
ेसर	-11.8445
▁एयरलाइन	-11.8445
▁एसआईटी	-11.8448
▁उर्	-11.8448
▁यूनि	-11.8449
▁एक्सेस	-11.8449
▁खराबी	-11.8452
▁भवनों	-11.8452
▁सराहा	-11.8454
स्ल	-11.8455
-09	-11.8455
जिक	-11.8457
▁रिमांड	-11.8463
▁लूटपाट	-11.8463
▁मौकों	-11.8464
▁टॉक	-11.8466
ुरी	-11.8466
मुस्लिम	-11.8468
▁लोकेश	-11.8469
▁दायरा	-11.8471
▁लड़ी	-11.8471
Com	-11.8473
पोर	-11.8473
▁जबाब	-11.8474
▁छिड़	-11.8475
▁प्रताड़ित	-11.8482
▁सरोवर	-11.8482
जाति	-11.8482
▁सुदृढ़	-11.8482
▁बागपत	-11.8482
▁इंटरनल	-11.8482
▁नियोजन	-11.8483
शिक	-11.8483
ब्रॉड	-11.8487
........	-11.8489
पल्ली	-11.8489
▁प्ला	-11.8489
ial	-11.849
▁प्रोमो	-11.8491
▁संपत्तियों	-11.8492
▁रहै	-11.8494
▁जायज	-11.8495
▁नाता	-11.8497
▁माउंट	-11.8497
ॉर्ड	-11.8499
▁आवारा	-11.85
▁ड्राफ्ट	-11.8501
▁भूगोल	-11.8501
▁सापेक्ष	-11.8502
▁इको	-11.8503
▁मैट्रिक	-11.8504
▁बादलों	-11.8504
▁लेखों	-11.8505
▁गंज	-11.8505
▁पहुंचेंगे	-11.8505
्बी	-11.8507
▁मुनाफे	-11.8508
▁सना	-11.8509
▁जमाना	-11.8511
▁शक्तियां	-11.8511
▁रखेगा	-11.8514
▁मेहमानों	-11.8515
▁धन्य	-11.8515
▁पीटीआई	-11.8517
▁कंपन	-11.8517
▁हाथियों	-11.8517
▁एआई	-11.8519
▁pi	-11.8519
▁काठमांडू	-11.852
▁दाहिने	-11.852
▁ठेका	-11.852
▁विश्वकप	-11.852
▁मजहब	-11.852
▁भण्डार	-11.852
ेदार	-11.8522
we	-11.8522
▁चाटने	-11.8523
▁हनी	-11.8525
▁अस्सी	-11.8527
▁ख़बरें	-11.853
▁फील	-11.8534
▁शीशे	-11.8536
▁आदरणीय	-11.8539
▁फ़िल्में	-11.8539
▁सुलझ	-11.8539
▁नवाचार	-11.854
▁कराची	-11.8544
EE	-11.8544
▁आड़े	-11.8545
्पो	-11.8547
▁घिरा	-11.855
▁मूर्तियों	-11.855
▁लेजर	-11.8552
वले	-11.8554
▁मैथिली	-11.8558
▁सामंजस्य	-11.8558
▁सोयाबीन	-11.8558
▁With	-11.8559
▁दवाइयों	-11.856
▁March	-11.856
▁वेज	-11.856
▁अधीनस्थ	-11.856
▁भाटी	-11.8562
▁Mein	-11.8562
ाही	-11.8566
व्यू	-11.8567
▁पस	-11.8568
▁चावला	-11.857
▁समझी	-11.8573
▁प्रतिष्ठान	-11.8574
cle	-11.8575
▁उपराज्यपाल	-11.8577
▁गिरफ़्तार	-11.8577
▁हंगामे	-11.8577
▁सर्किल	-11.8577
▁धुआं	-11.8577
▁उल्लास	-11.8578
▁संकाय	-11.8579
▁भरते	-11.8579
▁बाह्य	-11.8579
▁कुल्लू	-11.8581
षक	-11.8583
▁ओढ़	-11.8585
CR	-11.8591
परा	-11.8591
▁कलात्मक	-11.8593
▁तांत्रिक	-11.8596
▁भिखारी	-11.8596
▁जीतना	-11.8597
▁लाजवाब	-11.8597
▁सकने	-11.8597
▁नोडल	-11.8597
▁सतना	-11.8598
▁वित्तमंत्री	-11.8598
▁इंसानियत	-11.8599
▁आरा	-11.86
▁अर्द्ध	-11.86
पंथ	-11.8601
▁कौल	-11.8602
▁प्रांतीय	-11.8602
▁जासूसी	-11.8603
live	-11.8604
▁यमन	-11.8605
ण्	-11.8608
▁दृढ़ता	-11.8613
▁लह	-11.8613
▁अभिव्यक्त	-11.8614
bb	-11.8614
बेर	-11.8616
▁नजरिया	-11.8618
▁TO	-11.8619
▁बॉबी	-11.8619
▁दूत	-11.8622
▁युवतियों	-11.8627
चुअल	-11.8632
▁अनदेखा	-11.8635
▁तम्बाकू	-11.8635
▁दरभंगा	-11.8635
▁माथुर	-11.8635
▁कंडोम	-11.8635
▁घण्टे	-11.8635
▁फोटोशूट	-11.8635
▁वेबकैम	-11.8635
▁जुगाड़	-11.8635
▁सलाद	-11.8636
▁मैट	-11.8636
▁पैदावार	-11.8636
▁सप्त	-11.8638
ated	-11.8638
▁भेजें	-11.864
▁सरिता	-11.864
च्य	-11.8641
छे	-11.8641
▁सीना	-11.8641
▁गोर	-11.8641
ory	-11.8646
▁कैब	-11.8647
ॉन्ग	-11.8651
▁प्रमुखता	-11.8651
▁बैठकों	-11.8652
▁फैक्टरी	-11.8654
▁उद्धरण	-11.8654
▁आवाजाही	-11.8655
▁वशीकरण	-11.8655
▁थर	-11.8655
▁साभार	-11.8656
▁लाड	-11.8657
▁लाभान्वित	-11.8657
ब्ज	-11.8659
▁लेक	-11.866
board	-11.8661
▁Sp	-11.8664
▁फ़ैल	-11.8664
▁ढूंढ़	-11.8664
▁जाऊंगा	-11.8666
▁कॉलम	-11.8668
खास	-11.8669
▁Hot	-11.8669
▁टेर	-11.8669
▁सुहाग	-11.8671
▁टेंशन	-11.8673
▁br	-11.8673
वियर	-11.8673
्यान	-11.8673
▁शेड्यूल	-11.8674
▁Program	-11.8674
▁अंशु	-11.8675
▁अनुभाग	-11.8675
▁अयोग्य	-11.8676
▁निराला	-11.8676
ele	-11.8676
▁रजनी	-11.8677
पुट	-11.8677
▁साले	-11.8677
▁झाड़ू	-11.8678
▁समर्थित	-11.8678
ile	-11.8679
▁घुसे	-11.868
उपलब्ध	-11.868
ep	-11.8683
करीब	-11.8686
▁पैं	-11.8686
▁लाज	-11.869
oot	-11.8692
▁गर्भाशय	-11.8693
▁ग्रोवर	-11.8693
▁हमीरपुर	-11.8693
ेली	-11.8694
रत्न	-11.8695
▁नरसिंह	-11.8696
ाध्यक्ष	-11.8697
▁मकानों	-11.8698
किर	-11.87
▁Rajasthan	-11.87
बुद्धि	-11.87
▁सेनानी	-11.8701
▁खुलवा	-11.8703
िको	-11.8707
▁रहस्यमय	-11.8709
▁बाबर	-11.8711
...]	-11.8711
खि	-11.8712
▁क्रान्ति	-11.8712
▁शत्रुघ्न	-11.8713
▁दंपति	-11.8713
▁चौदह	-11.8713
▁छात्रसंघ	-11.8714
▁थ्री	-11.8714
▁बेचारे	-11.8715
▁ऊँचाई	-11.8718
2016	-11.8719
चन्द	-11.8719
▁दस्तावेज़	-11.8726
▁मैप	-11.8726
ात्म	-11.8728
▁शुष्क	-11.8732
▁सहभागिता	-11.8732
▁Test	-11.8733
▁घोड़ा	-11.8734
मनी	-11.8739
▁एनपीए	-11.874
▁बताइए	-11.874
र्मा	-11.8741
▁अष्ट	-11.8741
भो	-11.8741
सां	-11.8741
▁फ्रेंड्स	-11.8742
▁गोविंदा	-11.8743
यात्रा	-11.8743
▁वस्तुएं	-11.8746
▁कालीन	-11.8748
▁एक्सपो	-11.8749
औ	-11.8751
▁किफायती	-11.8752
▁निर्वहन	-11.8752
▁सांसारिक	-11.8752
▁औरंगाबाद	-11.8752
▁पंजीयन	-11.8752
▁चौका	-11.8752
▁part	-11.8752
▁असुविधा	-11.8754
▁धागा	-11.8754
▁कौम	-11.8755
▁स्तनों	-11.8756
▁किरणों	-11.876
▁सितारा	-11.876
▁टोक	-11.8762
▁हवाओं	-11.8764
पुराण	-11.8764
▁फेयर	-11.8764
्कि	-11.8764
▁bi	-11.8766
ैड	-11.8766
पता	-11.8769
▁आत्मनिर्भर	-11.8771
▁उपद्रव	-11.8771
▁भारतवर्ष	-11.8771
पाक	-11.8774
▁पढ़ाया	-11.8775
▁फ्रे	-11.8777
हमारे	-11.8779
डिट	-11.878
ेरिया	-11.8781
्यूम	-11.8781
गामी	-11.8782
स्थापित	-11.8783
▁Update	-11.8786
ुए	-11.8786
मीर	-11.8787
▁इसरो	-11.8787
ल्व	-11.8787
्लू	-11.8787
▁पंज	-11.8789
▁Aur	-11.8789
▁फंक्शन	-11.8791
▁ख़र्च	-11.8791
▁होटलों	-11.8793
amp	-11.8793
मरा	-11.8796
bit	-11.8798
yn	-11.88
संगत	-11.8803
▁सूखने	-11.8804
खोरी	-11.8805
ov	-11.8807
tes	-11.8808
▁रची	-11.8809
▁कार्बोहाइड्रेट	-11.881
▁चौराहा	-11.881
▁उपनिवेश	-11.881
▁बवासीर	-11.881
▁Number	-11.881
▁दोगुनी	-11.8811
उपर्युक्त	-11.8811
▁कोषाध्यक्ष	-11.8811
▁फ्लॉप	-11.8811
▁हुवा	-11.8811
▁लुप्त	-11.8811
▁तेरह	-11.8811
▁इट	-11.8812
form	-11.8814
▁शैल	-11.8816
उत	-11.8817
▁पारियों	-11.8817
gmail	-11.8817
ade	-11.8818
▁Pi	-11.8819
▁किसका	-11.8824
ग्राफ	-11.8825
ट्ट	-11.8825
▁लाती	-11.8825
3,000	-11.8826
▁शिला	-11.8828
▁(4	-11.883
▁mobile	-11.883
▁कन्नौज	-11.883
▁तत्पश्चात	-11.883
▁सिपाहियों	-11.883
▁बहोत	-11.883
▁Police	-11.883
▁जमशेदपुर	-11.8831
▁मेसेज	-11.8831
▁रोज़गार	-11.8831
▁रातों	-11.8833
सुख	-11.8836
▁बरा	-11.8837
िकता	-11.8838
▁लड़ना	-11.8838
▁वनवास	-11.884
▁गिनी	-11.8845
▁मऊ	-11.8847
▁कोल्ड	-11.8848
ल्हा	-11.8848
फिल्म	-11.8849
ग्ल	-11.8849
▁Use	-11.885
▁अनलिमिटेड	-11.885
▁आम्रपाली	-11.885
▁एबीवीपी	-11.885
▁शातिर	-11.885
▁खतरों	-11.8851
▁हैरत	-11.8851
▁माओवादियों	-11.8851
▁तख्त	-11.8852
स्की	-11.8854
▁गाथा	-11.8858
▁जैस	-11.8859
▁3-4	-11.886
ations	-11.8861
▁ha	-11.8861
▁जाली	-11.8861
▁Modi	-11.8862
▁सुध	-11.8864
cho	-11.8866
ढी	-11.8866
▁लेग	-11.8867
▁खुशहाल	-11.8868
▁उर्वशी	-11.887
▁मैगजीन	-11.887
▁ख़ूबसूरत	-11.887
▁श्रॉफ	-11.887
▁ताबड़तोड	-11.887
▁:120	-11.887
▁दुर्व्यवहार	-11.887
▁वैधता	-11.887
▁बैरल	-11.8871
▁फाटक	-11.8871
हिद	-11.8872
▁वासना	-11.8873
▁मुख्यधारा	-11.8874
लाय	-11.8874
hal	-11.8876
▁उपेंद्र	-11.8877
gh	-11.8877
▁भुगतना	-11.8878
मिट	-11.8879
पोल	-11.8879
▁आर्म	-11.8879
▁किरदारों	-11.8881
▁हैप्पी	-11.8881
▁160	-11.8881
संत	-11.8886
▁परंपराओं	-11.8887
युद्ध	-11.8887
▁सूझ	-11.8889
▁आमंत्रण	-11.8889
▁सौगात	-11.8889
▁मय	-11.889
▁जयप्रकाश	-11.8891
▁अश्व	-11.8895
पेश	-11.8895
▁स्टारर	-11.8896
▁comment	-11.8903
▁कलंक	-11.8904
pal	-11.8904
▁अमीन	-11.8905
आम	-11.8906
▁day	-11.8906
▁शुद्धता	-11.8908
▁शाहरूख	-11.8909
▁डायलॉग	-11.8909
▁गुरमीत	-11.8909
▁पाव	-11.891
▁नगरीय	-11.891
▁पत	-11.8911
षित	-11.8911
▁पंक्तियों	-11.8912
▁sub	-11.8915
▁शिविरों	-11.8916
▁चाक	-11.8917
▁हायर	-11.8921
▁कच	-11.8922
▁अष्टमी	-11.8922
▁क्लीनिक	-11.8923
पुलिस	-11.8923
कुश	-11.8924
cs	-11.8925
▁जींस	-11.8925
LA	-11.8925
आरटी	-11.8925
▁भई	-11.8928
▁अन्तर्	-11.8929
▁AajTak	-11.8929
▁नसीहत	-11.8929
▁पुरातत्व	-11.8929
▁करारी	-11.893
ग्रे	-11.893
▁विस्थापित	-11.8931
▁एड्स	-11.8931
▁छै	-11.8931
▁थर्ड	-11.8932
▁मानचित्र	-11.8932
▁रोकता	-11.8934
▁देय	-11.8937
▁बिजी	-11.8938
▁ज़िला	-11.8938
▁सीतापुर	-11.8939
pl	-11.8943
▁हटने	-11.8944
▁मिलनी	-11.8945
▁तिरु	-11.8945
ID	-11.8948
▁पकड़ी	-11.8948
▁ख्वाहिश	-11.8949
▁टिप्पणियों	-11.8949
साइट	-11.8949
▁कुदरत	-11.895
▁ऑडिट	-11.895
▁ब्रेस्ट	-11.8951
▁नजरें	-11.8952
▁वृषभ	-11.8953
▁बहाली	-11.8954
▁संस्कारों	-11.8954
ूत	-11.8957
▁निम	-11.8959
मपुर	-11.8959
विशेष	-11.8962
▁मलाई	-11.8963
▁शर्तें	-11.8965
▁मैग	-11.8969
▁अस्मिता	-11.8969
▁दरकिनार	-11.8969
▁प्रांगण	-11.8969
▁भतीजे	-11.8969
▁Play	-11.897
▁दुर्भाग्यपूर्ण	-11.897
▁वाहिनी	-11.897
▁ब्लैकमेल	-11.8971
हीनता	-11.8972
▁दिखाती	-11.8973
▁ar	-11.8973
▁रपट	-11.8973
▁अंतत	-11.8975
▁करणी	-11.8976
wal	-11.8978
▁दूज	-11.8979
मयी	-11.8979
ale	-11.8979
▁तकनीकों	-11.8981
ख़ा	-11.8981
▁जयराम	-11.8981
▁सीकर	-11.8982
एफआई	-11.8985
वाण	-11.8985
▁ह्यू	-11.8988
▁छेड़खानी	-11.8989
▁जनसंपर्क	-11.8989
▁एकदिवसीय	-11.8989
▁रास्तों	-11.8989
▁इंगित	-11.8989
▁ग़रीब	-11.8989
▁बुद्धिजीवी	-11.8989
▁शिंदे	-11.899
▁प्रजातियों	-11.8991
▁धारक	-11.8993
▁नीयत	-11.8994
▁घाटों	-11.8996
▁रोके	-11.8996
▁एबी	-11.8997
▁पुरूषों	-11.8997
साहित्य	-11.8997
▁रचनाएँ	-11.8998
▁दबोच	-11.8999
▁4000	-11.9002
पीएससी	-11.9002
▁Class	-11.9002
धारक	-11.9005
▁Car	-11.9007
पुल	-11.9008
▁अर्जेंटीना	-11.9009
▁पब्लिश	-11.9009
▁मार्टिन	-11.9009
▁साहित्यकारों	-11.901
▁फुटबाल	-11.901
▁क्रो	-11.901
TA	-11.901
▁रैकेट	-11.9011
आईडी	-11.9011
▁ज़ी	-11.9013
▁आँखे	-11.9015
SL	-11.9016
▁पांचवीं	-11.9018
▁पहचानने	-11.9019
थै	-11.902
▁मिलीलीटर	-11.9029
▁रंगमंच	-11.9029
▁एमेच्योर	-11.903
▁प्रतिरोधक	-11.903
ुं	-11.9032
▁जलस्तर	-11.9033
▁रेज	-11.9033
▁चढ़ाई	-11.9034
▁सीढ़ी	-11.9034
▁प्रवाहित	-11.9041
▁हालातों	-11.9042
▁ज्यों	-11.9043
▁000	-11.9043
पारा	-11.9044
wj	-11.9044
काय	-11.9045
्वर	-11.9047
back	-11.9048
▁इब्राहिम	-11.9049
▁मापदंड	-11.9049
▁गोष्ठी	-11.9049
▁स्तुति	-11.9049
▁भाग्यशाली	-11.905
pla	-11.9051
▁संवर्धन	-11.9051
▁अक्षरों	-11.9051
▁बीपी	-11.9054
▁घेराव	-11.9054
▁बिस	-11.9056
▁गाड़	-11.9059
▁आईये	-11.9059
▁धर्मनिरपेक्ष	-11.9061
▁बंग	-11.9063
TC	-11.9064
सिव	-11.9065
▁जामुन	-11.9066
▁ऐन	-11.9066
जाना	-11.9066
▁1-1	-11.9067
▁छुप	-11.9069
▁अनूठा	-11.9069
▁हाथापाई	-11.9069
▁घरेलु	-11.9069
▁संपदा	-11.9069
▁संस	-11.9071
▁खिलवाड़	-11.9071
▁II	-11.9071
भक्ति	-11.9071
▁उज	-11.9072
▁भवानी	-11.9073
▁आईबी	-11.9075
tan	-11.9076
▁आयेगी	-11.9077
▁लकीर	-11.9078
▁बरतन	-11.9078
▁यात्राओं	-11.908
आरएस	-11.9082
▁चुक	-11.9083
स्म	-11.9085
फ्रे	-11.9086
ative	-11.9087
lor	-11.9087
▁आईसी	-11.9087
▁एल्बम	-11.909
▁कैटेगरी	-11.909
▁सुजुकी	-11.909
▁कॉर्पोरेट	-11.909
▁वैश्य	-11.909
▁कार्ल	-11.9091
▁खुराना	-11.9091
▁होठों	-11.9091
▁जिन्दा	-11.9093
▁दोहरी	-11.9095
▁प्रण	-11.9098
▁स्वदेश	-11.91
▁रीता	-11.9105
mal	-11.9108
न्यास	-11.9108
▁पहिया	-11.9108
दृ	-11.9108
▁डेमो	-11.9109
▁बदलावों	-11.911
▁Kumar	-11.911
▁ट्रांसफार्मर	-11.911
▁बीएसएनएल	-11.911
▁ब्लाउज	-11.911
▁सॉन्ग	-11.9112
▁रावल	-11.9112
▁स्क्व	-11.9113
शनल	-11.9115
▁दिशानिर्देश	-11.912
वंश	-11.9126
▁उत्तराधिकारी	-11.9127
▁जनप्रतिनिधि	-11.9129
▁ब्रो	-11.913
▁हन	-11.913
▁घमासान	-11.913
▁एंड्राइड	-11.913
cre	-11.9132
▁वीरता	-11.9135
▁जरी	-11.9136
▁ड्राई	-11.9136
▁आशिक	-11.9137
▁पुस्तिका	-11.9139
http	-11.9139
▁थमने	-11.9141
प्यार	-11.9142
▁पिछड़	-11.9142
वण	-11.9143
?'	-11.9144
▁टहल	-11.9145
▁Gujarat	-11.915
▁अंगूठी	-11.915
▁नज़दीक	-11.915
▁भूस्खलन	-11.915
▁श्रावण	-11.915
▁असहज	-11.915
▁IPL	-11.9151
▁सुर्खियां	-11.9151
▁सोडा	-11.9152
▁प्रयाग	-11.9155
आरआई	-11.9155
घट	-11.9158
▁मशीनें	-11.916
▁वैट	-11.9161
कोल	-11.9161
▁नाय	-11.9162
▁चूहे	-11.9162
▁चौड़ी	-11.9164
▁1,000	-11.9168
झी	-11.9168
ार्थियों	-11.9168
▁Education	-11.9171
▁उपलक्ष्य	-11.9171
▁kahani	-11.9171
▁महोबा	-11.9171
▁साक्षात	-11.9171
▁fuck	-11.9172
▁पवित्रता	-11.9172
▁रॉकेट	-11.9174
ON	-11.9175
▁विकासशील	-11.9176
▁चंद्रा	-11.9176
▁माथा	-11.9177
▁जलकर	-11.9181
▁ट्रै	-11.9185
ांकन	-11.9187
इट	-11.919
▁विधिक	-11.919
▁हरकतों	-11.919
▁ताकतों	-11.919
▁सेक्युलर	-11.9191
▁पीपुल्स	-11.9191
▁फाइनेंशियल	-11.9191
▁वॉटर	-11.9191
▁नायर	-11.9193
▁कुंवर	-11.9194
▁विलंब	-11.9194
विश्व	-11.9195
फूल	-11.9196
▁बैट	-11.9197
▁सगे	-11.92
▁हलके	-11.9201
gan	-11.9201
▁नोट्स	-11.9204
▁संजो	-11.9205
विवाह	-11.9206
ोनिया	-11.9206
▁मिजाज	-11.9207
san	-11.9207
एनसी	-11.9207
▁अनुयायी	-11.9212
▁एसयूवी	-11.9212
▁कसौटी	-11.9212
▁पवेलियन	-11.9212
▁मुट्ठी	-11.9212
▁वर्चुअल	-11.9212
▁आँसू	-11.9212
▁निखिल	-11.9213
▁SBI	-11.9213
र्द्ध	-11.9214
by	-11.9215
स्फ	-11.9216
▁छवियों	-11.922
▁मंग	-11.922
▁Ver	-11.922
▁मुद्राओं	-11.9222
▁अनुज	-11.9224
▁चौकीदार	-11.9225
जिला	-11.9226
मीडिया	-11.9226
▁रचने	-11.9231
▁उपनिषद	-11.9232
मेन्ट	-11.9232
▁पराक्रम	-11.9233
हारी	-11.9233
▁यमराज	-11.9234
▁गजल	-11.9237
ign	-11.9241
▁धर्मेन्द्र	-11.9247
▁दाएं	-11.9247
▁मेें	-11.9249
▁लाइनों	-11.9251
▁रेन	-11.9253
▁Samachar	-11.9253
▁मुक्केबाज	-11.9253
▁बुल	-11.9254
▁दून	-11.9256
▁वाट	-11.9257
▁बगावत	-11.926
▁स्विस	-11.9261
बैठ	-11.9262
▁पात्रों	-11.9263
▁सादगी	-11.9273
▁ख्वाब	-11.9273
▁वैशाली	-11.9274
वात	-11.9274
▁इर	-11.9274
▁पाठशाला	-11.9274
▁करिए	-11.9274
▁वेश्या	-11.9277
▁गालियां	-11.9277
▁न्यास	-11.9282
ोरी	-11.9282
▁जुड़ाव	-11.9283
▁होगे	-11.9283
vers	-11.9284
▁खाक	-11.9284
▁चूना	-11.9285
इसलिए	-11.9285
▁चीर	-11.9286
▁हेलो	-11.929
▁कोशिका	-11.9292
▁बरती	-11.9293
▁Market	-11.9294
▁मनोरंजक	-11.9294
▁एंटीऑक्सीडेंट	-11.9294
▁खरी	-11.9297
▁स्वतः	-11.9297
▁पम्प	-11.9304
▁प्रविष्टि	-11.9304
गंगा	-11.9308
▁मिलीं	-11.9309
▁टुक	-11.9311
PC	-11.9311
कृ	-11.9312
▁अमूमन	-11.9315
▁मैग्नीशियम	-11.9315
▁लॉटरी	-11.9315
▁उपरान्त	-11.9315
▁सेफ्टी	-11.9315
▁कार्यप्रणाली	-11.9315
दाय	-11.9317
▁गइल	-11.9318
aa	-11.9318
▁प्	-11.932
▁पहुँचाने	-11.9321
▁प्रमोट	-11.9321
अव	-11.9321
▁शिखा	-11.9323
▁National	-11.9325
▁माध्यमों	-11.9326
▁image	-11.9329
लियन	-11.9332
वरा	-11.9332
▁हाथो	-11.9333
कारक	-11.9333
▁कमाए	-11.9335
▁ग्रेजुएशन	-11.9335
▁स्वाधीनता	-11.9335
▁डीआईजी	-11.9335
▁अदाकारा	-11.9335
▁असुरक्षित	-11.9335
▁चैम्पियनशिप	-11.9335
▁रोहिणी	-11.9336
▁जज्बा	-11.9336
▁आत्मकथा	-11.9336
▁तेजप्रताप	-11.9336
▁रिव्यू	-11.9337
षियों	-11.9338
▁मेटल	-11.9339
▁बीएड	-11.934
▁सद्	-11.9341
▁निकालें	-11.9342
रज	-11.9345
र्रा	-11.9346
▁झेलनी	-11.9347
▁एवज	-11.935
▁ऐश	-11.935
.75	-11.9351
खोर	-11.9353
▁विचलित	-11.9356
▁मादक	-11.9356
▁जितेन्द्र	-11.9356
▁समायोजित	-11.9356
▁समाहित	-11.9357
▁सुस्त	-11.9357
▁शाहजहांपुर	-11.9357
▁work	-11.9359
▁जीआरपी	-11.9361
▁बृज	-11.9364
लिस्ट	-11.9365
▁वेग	-11.9365
डब्लू	-11.9367
▁1970	-11.937
एमए	-11.9371
सात	-11.9371
एनसीआर	-11.9372
▁चलाता	-11.9373
▁कोटि	-11.9375
▁प्रतिभागी	-11.9376
▁दुष्यंत	-11.9377
▁पंचकूला	-11.9377
▁इंफेक्शन	-11.9377
▁कैमरों	-11.9378
▁ग्राफ	-11.9379
ons	-11.9381
▁have	-11.9381
▁महत्ता	-11.9383
▁ड्रग	-11.9383
▁चुनौतीपूर्ण	-11.9383
▁मेज	-11.9384
▁खाल	-11.9384
..!	-11.9385
▁देवरिया	-11.9386
▁पाठ्यक्रमों	-11.939
▁नि०	-11.9392
▁दबे	-11.9392
▁रोहन	-11.9392
मास	-11.9393
▁तौल	-11.9394
▁दिखना	-11.9395
▁4.5	-11.9397
▁नियंत्रक	-11.9398
▁बाकायदा	-11.9398
▁ब्लूटूथ	-11.9398
▁सेलिब्रिटी	-11.9398
▁टंडन	-11.9398
[...]
